{
  "version": "1.0",
  "truncation": null,
  "padding": null,
  "added_tokens": [
    {
      "id": 0,
      "content": "<|endoftext|>",
      "single_word": false,
      "lstrip": false,
      "rstrip": false,
      "normalized": false,
      "special": true
    }
  ],
  "normalizer": {
    "type": "NFC"
  },
  "pre_tokenizer": {
    "type": "Sequence",
    "pretokenizers": [
      {
        "type": "Split",
        "pattern": {
          "Regex": "’(?i:[sdmt]|ll|ve|re)|[^\\r\\n\\p{L}\\p{N}]?+\\p{L}++|\\p{N}{1,3}+| ?[^\\s\\p{L}\\p{N}]++[\\r\\n]*+|\\s++$|\\s*[\\r\\n]|\\s+(?!\\S)|\\s~"
        },
        "behavior": "Isolated",
        "invert": false
      },
      {
        "type": "ByteLevel",
        "add_prefix_space": false,
        "trim_offsets": true,
        "use_regex": false
      }
    ]
  },
  "post_processor": null,
  "decoder": {
    "type": "ByteLevel",
    "add_prefix_space": true,
    "trim_offsets": true,
    "use_regex": true
  },
  "model": {
    "type": "BPE",
    "dropout": null,
    "unk_token": null,
    "continuing_subword_prefix": null,
    "end_of_word_suffix": null,
    "fuse_unk": false,
    "byte_fallback": false,
    "ignore_merges": false,
    "vocab": {
      "<|endoftext|>": 0,
      "!": 1,
      "\"": 2,
      "#": 3,
      "$": 4,
      "%": 5,
      "&": 6,
      "'": 7,
      "(": 8,
      ")": 9,
      "*": 10,
      "+": 11,
      ",": 12,
      "-": 13,
      ".": 14,
      "/": 15,
      "0": 16,
      "1": 17,
      "2": 18,
      "3": 19,
      "4": 20,
      "5": 21,
      "6": 22,
      "7": 23,
      "8": 24,
      "9": 25,
      ":": 26,
      ";": 27,
      "<": 28,
      "=": 29,
      ">": 30,
      "?": 31,
      "@": 32,
      "A": 33,
      "B": 34,
      "C": 35,
      "D": 36,
      "E": 37,
      "F": 38,
      "G": 39,
      "H": 40,
      "I": 41,
      "J": 42,
      "K": 43,
      "L": 44,
      "M": 45,
      "N": 46,
      "O": 47,
      "P": 48,
      "Q": 49,
      "R": 50,
      "S": 51,
      "T": 52,
      "U": 53,
      "V": 54,
      "W": 55,
      "X": 56,
      "Y": 57,
      "Z": 58,
      "[": 59,
      "\\": 60,
      "]": 61,
      "^": 62,
      "_": 63,
      "`": 64,
      "a": 65,
      "b": 66,
      "c": 67,
      "d": 68,
      "e": 69,
      "f": 70,
      "g": 71,
      "h": 72,
      "i": 73,
      "j": 74,
      "k": 75,
      "l": 76,
      "m": 77,
      "n": 78,
      "o": 79,
      "p": 80,
      "q": 81,
      "r": 82,
      "s": 83,
      "t": 84,
      "u": 85,
      "v": 86,
      "w": 87,
      "x": 88,
      "y": 89,
      "z": 90,
      "{": 91,
      "|": 92,
      "}": 93,
      "~": 94,
      "¡": 95,
      "¢": 96,
      "£": 97,
      "¤": 98,
      "¥": 99,
      "¦": 100,
      "§": 101,
      "¨": 102,
      "©": 103,
      "ª": 104,
      "«": 105,
      "¬": 106,
      "®": 107,
      "¯": 108,
      "°": 109,
      "±": 110,
      "²": 111,
      "³": 112,
      "´": 113,
      "µ": 114,
      "¶": 115,
      "·": 116,
      "¸": 117,
      "¹": 118,
      "º": 119,
      "»": 120,
      "¼": 121,
      "½": 122,
      "¾": 123,
      "¿": 124,
      "À": 125,
      "Á": 126,
      "Â": 127,
      "Ã": 128,
      "Ä": 129,
      "Å": 130,
      "Æ": 131,
      "Ç": 132,
      "È": 133,
      "É": 134,
      "Ê": 135,
      "Ë": 136,
      "Ì": 137,
      "Í": 138,
      "Î": 139,
      "Ï": 140,
      "Ð": 141,
      "Ñ": 142,
      "Ò": 143,
      "Ó": 144,
      "Ô": 145,
      "Õ": 146,
      "Ö": 147,
      "×": 148,
      "Ø": 149,
      "Ù": 150,
      "Ú": 151,
      "Û": 152,
      "Ü": 153,
      "Ý": 154,
      "Þ": 155,
      "ß": 156,
      "à": 157,
      "á": 158,
      "â": 159,
      "ã": 160,
      "ä": 161,
      "å": 162,
      "æ": 163,
      "ç": 164,
      "è": 165,
      "é": 166,
      "ê": 167,
      "ë": 168,
      "ì": 169,
      "í": 170,
      "î": 171,
      "ï": 172,
      "ð": 173,
      "ñ": 174,
      "ò": 175,
      "ó": 176,
      "ô": 177,
      "õ": 178,
      "ö": 179,
      "÷": 180,
      "ø": 181,
      "ù": 182,
      "ú": 183,
      "û": 184,
      "ü": 185,
      "ý": 186,
      "þ": 187,
      "ÿ": 188,
      "Ā": 189,
      "ā": 190,
      "Ă": 191,
      "ă": 192,
      "Ą": 193,
      "ą": 194,
      "Ć": 195,
      "ć": 196,
      "Ĉ": 197,
      "ĉ": 198,
      "Ċ": 199,
      "ċ": 200,
      "Č": 201,
      "č": 202,
      "Ď": 203,
      "ď": 204,
      "Đ": 205,
      "đ": 206,
      "Ē": 207,
      "ē": 208,
      "Ĕ": 209,
      "ĕ": 210,
      "Ė": 211,
      "ė": 212,
      "Ę": 213,
      "ę": 214,
      "Ě": 215,
      "ě": 216,
      "Ĝ": 217,
      "ĝ": 218,
      "Ğ": 219,
      "ğ": 220,
      "Ġ": 221,
      "ġ": 222,
      "Ģ": 223,
      "ģ": 224,
      "Ĥ": 225,
      "ĥ": 226,
      "Ħ": 227,
      "ħ": 228,
      "Ĩ": 229,
      "ĩ": 230,
      "Ī": 231,
      "ī": 232,
      "Ĭ": 233,
      "ĭ": 234,
      "Į": 235,
      "į": 236,
      "İ": 237,
      "ı": 238,
      "Ĳ": 239,
      "ĳ": 240,
      "Ĵ": 241,
      "ĵ": 242,
      "Ķ": 243,
      "ķ": 244,
      "ĸ": 245,
      "Ĺ": 246,
      "ĺ": 247,
      "Ļ": 248,
      "ļ": 249,
      "Ľ": 250,
      "ľ": 251,
      "Ŀ": 252,
      "ŀ": 253,
      "Ł": 254,
      "ł": 255,
      "Ń": 256,
      "ĠĠ": 257,
      "ĠĠĠĠ": 258,
      "in": 259,
      "Ġt": 260,
      "ĠĠĠ": 261,
      "er": 262,
      "at": 263,
      "re": 264,
      "on": 265,
      "Ġa": 266,
      "ĠĠĠĠĠĠĠĠ": 267,
      "or": 268,
      "en": 269,
      "st": 270,
      "se": 271,
      "he": 272,
      ")Ċ": 273,
      "Ġ=": 274,
      "al": 275,
      "an": 276,
      "it": 277,
      "ar": 278,
      "Ġc": 279,
      "le": 280,
      "Ġp": 281,
      "Ġthe": 282,
      "de": 283,
      "ĠĠĠĠĠĠĠ": 284,
      "Ġf": 285,
      "Ġo": 286,
      "Ġs": 287,
      "ro": 288,
      "ion": 289,
      "me": 290,
      "ic": 291,
      "Ġin": 292,
      "ing": 293,
      "Ġw": 294,
      "Ġi": 295,
      "es": 296,
      "Ġb": 297,
      "lo": 298,
      "ou": 299,
      "Ġn": 300,
      "Ġm": 301,
      "ed": 302,
      "mp": 303,
      "nd": 304,
      "ra": 305,
      "Ġd": 306,
      "ct": 307,
      "ent": 308,
      "Ġof": 309,
      "Ġre": 310,
      ":Ċ": 311,
      "la": 312,
      "Ġto": 313,
      "ge": 314,
      "is": 315,
      "ut": 316,
      "Ġand": 317,
      "el": 318,
      "ĊĊ": 319,
      "Ġ'": 320,
      "sel": 321,
      "ol": 322,
      "ĠĠĠĠĠĠĠĠĠĠĠ": 323,
      "self": 324,
      "ur": 325,
      "ss": 326,
      ",Ċ": 327,
      "ig": 328,
      "Ġ\"": 329,
      "Ġe": 330,
      "ch": 331,
      "il": 332,
      "id": 333,
      ")ĊĊ": 334,
      "Ġh": 335,
      "ort": 336,
      "ce": 337,
      "Ġth": 338,
      "--": 339,
      "_t": 340,
      "ad": 341,
      "ata": 342,
      "ation": 343,
      "um": 344,
      "ve": 345,
      "ate": 346,
      "ot": 347,
      "as": 348,
      "ĠĠĠĠĠĠĠĠĠĠĠĠĠĠĠĠ": 349,
      "Ġfor": 350,
      "pe": 351,
      "',": 352,
      "lt": 353,
      "li": 354,
      "est": 355,
      "int": 356,
      "Ġde": 357,
      "Ġ(": 358,
      "ĠT": 359,
      "ame": 360,
      "co": 361,
      "##": 362,
      "th": 363,
      "00": 364,
      "_d": 365,
      "Ġself": 366,
      "Ġis": 367,
      "ma": 368,
      ".Ċ": 369,
      "):Ċ": 370,
      "ue": 371,
      "Ġst": 372,
      "mport": 373,
      "un": 374,
      "ers": 375,
      "_p": 376,
      "\\x": 377,
      "Ġg": 378,
      "Ġ#": 379,
      "ri": 380,
      "ode": 381,
      "iz": 382,
      "_s": 383,
      "et": 384,
      "rom": 385,
      "']": 386,
      "Ġy": 387,
      "['": 388,
      "val": 389,
      "ĠS": 390,
      "_c": 391,
      "ir": 392,
      "ĠC": 393,
      "ly": 394,
      "ĠA": 395,
      "ver": 396,
      "ran": 397,
      "('": 398,
      "ow": 399,
      "om": 400,
      "Ġas": 401,
      "res": 402,
      "set": 403,
      "us": 404,
      "qu": 405,
      "im": 406,
      "ith": 407,
      "Ġbe": 408,
      "nt": 409,
      "pp": 410,
      "ck": 411,
      "if": 412,
      "ist": 413,
      "Ġl": 414,
      "ĠI": 415,
      "âĢ": 416,
      "ex": 417,
      "Ġcon": 418,
      "ab": 419,
      "rint": 420,
      ".s": 421,
      "rain": 422,
      "Ġif": 423,
      "get": 424,
      "Ġon": 425,
      "urn": 426,
      "_f": 427,
      "pt": 428,
      "end": 429,
      "ile": 430,
      "ter": 431,
      "am": 432,
      "od": 433,
      ".p": 434,
      "odel": 435,
      "ke": 436,
      "Ġ[": 437,
      "ĠĠĠĠĠĠĠĠĠĠĠĠĠĠĠ": 438,
      "red": 439,
      "ĠP": 440,
      "orm": 441,
      "up": 442,
      "ht": 443,
      "----": 444,
      "Ġwh": 445,
      "_n": 446,
      "()": 447,
      "Ġthat": 448,
      "ul": 449,
      "and": 450,
      "ime": 451,
      "turn": 452,
      "ath": 453,
      "ction": 454,
      "ize": 455,
      "Ġwith": 456,
      "ay": 457,
      "(\"": 458,
      "ĠN": 459,
      "ult": 460,
      "ment": 461,
      "Ġpro": 462,
      "lab": 463,
      "Ġ+": 464,
      "\",": 465,
      "Ġex": 466,
      "==": 467,
      "ĠM": 468,
      "Ġimport": 469,
      "ha": 470,
      "lot": 471,
      "Ġor": 472,
      "os": 473,
      "]Ċ": 474,
      "ine": 475,
      "__": 476,
      "Ġreturn": 477,
      "\"\"": 478,
      "op": 479,
      "Ġal": 480,
      "='": 481,
      "čĊ": 482,
      "Ġ-": 483,
      "one": 484,
      "()Ċ": 485,
      ".c": 486,
      "Ġit": 487,
      "Ġv": 488,
      "ity": 489,
      "our": 490,
      "Ġan": 491,
      "ict": 492,
      "Ġdef": 493,
      "ĠF": 494,
      "ure": 495,
      "art": 496,
      "ĠD": 497,
      "from": 498,
      "ect": 499,
      "####": 500,
      "),": 501,
      "Ġare": 502,
      "ces": 503,
      "')Ċ": 504,
      "ub": 505,
      "ĠR": 506,
      "put": 507,
      "ight": 508,
      "out": 509,
      "))Ċ": 510,
      "ew": 511,
      "Ġnp": 512,
      "iv": 513,
      "Ġlo": 514,
      "Ġse": 515,
      "label": 516,
      "ies": 517,
      "import": 518,
      "Ġme": 519,
      "_m": 520,
      "em": 521,
      "Ġnot": 522,
      "(self": 523,
      "':": 524,
      "Ġ{": 525,
      "ĠB": 526,
      "ax": 527,
      "ord": 528,
      "ype": 529,
      "ere": 530,
      "Ġr": 531,
      "ase": 532,
      ".t": 533,
      "ount": 534,
      "rue": 535,
      "Ġco": 536,
      "ext": 537,
      "Ġdata": 538,
      "20": 539,
      "ial": 540,
      "data": 541,
      "ĠL": 542,
      "ert": 543,
      "list": 544,
      "],": 545,
      "use": 546,
      "df": 547,
      "ĠE": 548,
      "age": 549,
      "ore": 550,
      "10": 551,
      "print": 552,
      "mple": 553,
      "Ġhe": 554,
      ".a": 555,
      "ant": 556,
      "lass": 557,
      "ĠThe": 558,
      "_b": 559,
      "form": 560,
      "ive": 561,
      "ep": 562,
      "all": 563,
      "ave": 564,
      "ip": 565,
      "Ġx": 566,
      "ill": 567,
      "ff": 568,
      "def": 569,
      "ag": 570,
      "able": 571,
      "str": 572,
      "ĠW": 573,
      "Ġfrom": 574,
      "Ġres": 575,
      ").": 576,
      "Ġle": 577,
      "Ġ==": 578,
      "ĠH": 579,
      "ac": 580,
      "ld": 581,
      "plt": 582,
      "Ġby": 583,
      "ens": 584,
      "fig": 585,
      "Ġat": 586,
      "ĠG": 587,
      "Ġ*": 588,
      "Ġch": 589,
      "lay": 590,
      "ind": 591,
      "ont": 592,
      "Ġk": 593,
      "(t": 594,
      "oc": 595,
      "ions": 596,
      "ard": 597,
      "gs": 598,
      "_data": 599,
      "ust": 600,
      "_in": 601,
      "Ġma": 602,
      "\")Ċ": 603,
      "ice": 604,
      "ud": 605,
      "\":": 606,
      "Ġ\"\"\"": 607,
      "Ġcan": 608,
      "ĠĊ": 609,
      "âĢĻ": 610,
      "(n": 611,
      "Ġwe": 612,
      "Ġprint": 613,
      "low": 614,
      "ĠO": 615,
      "Ġcol": 616,
      "_id": 617,
      "dex": 618,
      "act": 619,
      "Ġel": 620,
      "ated": 621,
      "ical": 622,
      "ost": 623,
      ".f": 624,
      "Ġval": 625,
      "ack": 626,
      "ary": 627,
      "ok": 628,
      "ance": 629,
      "Ġen": 630,
      "Ġthis": 631,
      "Ġint": 632,
      "hape": 633,
      "ĠĠĠĠĠĠĠĠĠĠĠĠĠĠĠĠĠĠĠ": 634,
      "und": 635,
      "ry": 636,
      "Ġ:": 637,
      "plot": 638,
      "_name": 639,
      "Ġyou": 640,
      "ject": 641,
      "ome": 642,
      "vi": 643,
      "ence": 644,
      "ob": 645,
      "mb": 646,
      "ns": 647,
      "Ġran": 648,
      "log": 649,
      "(f": 650,
      "--------": 651,
      "rop": 652,
      "Ġsh": 653,
      "[\"": 654,
      "_st": 655,
      "ap": 656,
      "ray": 657,
      "),Ċ": 658,
      "ample": 659,
      "Ġout": 660,
      "_train": 661,
      "ain": 662,
      "',Ċ": 663,
      "True": 664,
      "_test": 665,
      "atch": 666,
      "Ġar": 667,
      "Ġcont": 668,
      "du": 669,
      "Ġli": 670,
      "rans": 671,
      "ory": 672,
      "()ĊĊ": 673,
      "alse": 674,
      "].": 675,
      "name": 676,
      "ug": 677,
      "ork": 678,
      "con": 679,
      "=\"": 680,
      "Ġwas": 681,
      "Ġj": 682,
      "row": 683,
      "ues": 684,
      "ations": 685,
      "key": 686,
      "ear": 687,
      "====": 688,
      "Ġmodel": 689,
      "ĠĠĠĠĊ": 690,
      ".re": 691,
      "cess": 692,
      "ors": 693,
      "are": 694,
      "ĠU": 695,
      "Ġstr": 696,
      "Ġtest": 697,
      "ast": 698,
      "Ġhave": 699,
      "ents": 700,
      "_re": 701,
      "sc": 702,
      "12": 703,
      "19": 704,
      "_w": 705,
      "(p": 706,
      "])Ċ": 707,
      "eat": 708,
      "len": 709,
      "model": 710,
      "(Ċ": 711,
      "Ġuse": 712,
      "aram": 713,
      "ite": 714,
      "mage": 715,
      "\"Ċ": 716,
      "########": 717,
      "arn": 718,
      "ise": 719,
      "..": 720,
      "(x": 721,
      "ĠĠĠĠĠ": 722,
      "_g": 723,
      "add": 724,
      "ĠĠĠĠĠĠĠĠĠĠĠĠĠĠĠĠĠĠĠĠĠĠĠĠĠĠĠĠĠĠĠĠ": 725,
      "ress": 726,
      "Ġad": 727,
      "Ġab": 728,
      "=True": 729,
      ".d": 730,
      "tr": 731,
      "Ġtime": 732,
      "te": 733,
      "ould": 734,
      "ther": 735,
      ".get": 736,
      "ppend": 737,
      "ĠâĢ": 738,
      "ĠNone": 739,
      "ich": 740,
      "ick": 741,
      "ign": 742,
      "ber": 743,
      "cc": 744,
      "cl": 745,
      "Ġun": 746,
      "\",Ċ": 747,
      "pl": 748,
      "ild": 749,
      "100": 750,
      "ose": 751,
      "(s": 752,
      "**": 753,
      "Ġax": 754,
      "ded": 755,
      "ell": 756,
      "ang": 757,
      "ual": 758,
      "_val": 759,
      "ror": 760,
      "Ġnum": 761,
      "'Ċ": 762,
      "oint": 763,
      "ition": 764,
      "max": 765,
      "Ġdf": 766,
      "Ġget": 767,
      "old": 768,
      "ph": 769,
      "_df": 770,
      "ach": 771,
      "([": 772,
      "ĠTh": 773,
      "fer": 774,
      "ssert": 775,
      "ari": 776,
      "Ġus": 777,
      "Ġsu": 778,
      "Ġsc": 779,
      "_size": 780,
      "redict": 781,
      "Ġdo": 782,
      "Ġplt": 783,
      "loc": 784,
      "Ġall": 785,
      "ib": 786,
      "Ġne": 787,
      "per": 788,
      ".append": 789,
      "ong": 790,
      "ire": 791,
      "(c": 792,
      "rame": 793,
      "\"]": 794,
      "ser": 795,
      "')": 796,
      "._": 797,
      "ings": 798,
      "ption": 799,
      "sv": 800,
      "cy": 801,
      "we": 802,
      ".n": 803,
      "The": 804,
      "ak": 805,
      "Ġcom": 806,
      "Ġwill": 807,
      "Ġelse": 808,
      "ace": 809,
      "ree": 810,
      "ide": 811,
      ".set": 812,
      "Ġpd": 813,
      "ates": 814,
      "ĠV": 815,
      "iel": 816,
      "Ġname": 817,
      "roup": 818,
      "av": 819,
      "Ġte": 820,
      "ft": 821,
      "rib": 822,
      "Ġcomp": 823,
      "ia": 824,
      "min": 825,
      "ool": 826,
      "ĠIn": 827,
      "ous": 828,
      "ield": 829,
      "Ġ%": 830,
      "Ġper": 831,
      "))": 832,
      "15": 833,
      "Ġwhich": 834,
      "Ġrange": 835,
      "og": 836,
      "ark": 837,
      "[:": 838,
      "ures": 839,
      "âĢĻs": 840,
      "for": 841,
      "Ġtrain": 842,
      "ener": 843,
      "Ġhas": 844,
      "ĠJ": 845,
      "core": 846,
      "ĊĊĊ": 847,
      "pec": 848,
      "Ġyour": 849,
      "eg": 850,
      "ess": 851,
      "itle": 852,
      "Ġlen": 853,
      "Ġro": 854,
      "Ġtheir": 855,
      "Ġ\"\"\"Ċ": 856,
      "dom": 857,
      "class": 858,
      "Ġpre": 859,
      "ys": 860,
      "quest": 861,
      "ix": 862,
      "ses": 863,
      "Ġ_": 864,
      "25": 865,
      "ound": 866,
      "com": 867,
      "so": 868,
      "own": 869,
      "array": 870,
      "ĉĉ": 871,
      "[i": 872,
      "ump": 873,
      "Ġlist": 874,
      "ask": 875,
      "ics": 876,
      "Ġdis": 877,
      "test": 878,
      "les": 879,
      ".b": 880,
      "ater": 881,
      "time": 882,
      "load": 883,
      "16": 884,
      ".g": 885,
      "18": 886,
      "Ġ/": 887,
      "In": 888,
      "Ġset": 889,
      "Ġla": 890,
      "_list": 891,
      "ans": 892,
      "_r": 893,
      "_h": 894,
      "ps": 895,
      "ms": 896,
      "Ġthey": 897,
      "pon": 898,
      "Ġlabel": 899,
      "size": 900,
      "ĠK": 901,
      "Ġra": 902,
      "lic": 903,
      "lect": 904,
      "ER": 905,
      "Ġfile": 906,
      "Ġnew": 907,
      "Ġob": 908,
      "Ġsp": 909,
      "args": 910,
      "Ġmore": 911,
      "','": 912,
      "io": 913,
      "ute": 914,
      "igh": 915,
      "ator": 916,
      "Ġone": 917,
      "Ġup": 918,
      "its": 919,
      "format": 920,
      "reate": 921,
      "Ġresult": 922,
      "'s": 923,
      "ood": 924,
      "pro": 925,
      "che": 926,
      "Ġso": 927,
      "AT": 928,
      "Ġ<": 929,
      "arget": 930,
      "Data": 931,
      "))ĊĊ": 932,
      "ins": 933,
      "lace": 934,
      "ern": 935,
      "arch": 936,
      "led": 937,
      "False": 938,
      "_path": 939,
      "]ĊĊ": 940,
      "unction": 941,
      "mo": 942,
      "irst": 943,
      "son": 944,
      "der": 945,
      "Ġman": 946,
      "col": 947,
      "line": 948,
      "Ġbut": 949,
      "')ĊĊ": 950,
      ".add": 951,
      "11": 952,
      "(X": 953,
      "oth": 954,
      "Ġsk": 955,
      "_v": 956,
      "IN": 957,
      "fo": 958,
      ".shape": 959,
      "ec": 960,
      "inal": 961,
      "vel": 962,
      "rit": 963,
      "sh": 964,
      "ĠSt": 965,
      "âĢĿ": 966,
      "_co": 967,
      "ass": 968,
      "np": 969,
      ".st": 970,
      "ific": 971,
      "ĠX": 972,
      "(d": 973,
      "_de": 974,
      "init": 975,
      "plit": 976,
      "mean": 977,
      "cept": 978,
      "rid": 979,
      "Ġ>": 980,
      "ll": 981,
      "'].": 982,
      "Ġinter": 983,
      "Ġos": 984,
      "bo": 985,
      "ne": 986,
      "200": 987,
      "orch": 988,
      "arams": 989,
      "ef": 990,
      "Ġpar": 991,
      "_file": 992,
      "Ġmat": 993,
      "Ġother": 994,
      "vent": 995,
      "Ġsy": 996,
      "ifi": 997,
      "ish": 998,
      "Ġact": 999,
      "ĠY": 1000,
      "ges": 1001,
      "iss": 1002,
      "umns": 1003,
      "mer": 1004,
      "Ġ__": 1005,
      "Ġpart": 1006,
      "Ġapp": 1007,
      "_se": 1008,
      "14": 1009,
      "],Ċ": 1010,
      "loat": 1011,
      "Ġsome": 1012,
      "pect": 1013,
      "ON": 1014,
      "ault": 1015,
      "ense": 1016,
      "ta": 1017,
      ".x": 1018,
      "result": 1019,
      "umpy": 1020,
      "ink": 1021,
      "very": 1022,
      "ca": 1023,
      "50": 1024,
      "\\Ċ": 1025,
      "rad": 1026,
      "ian": 1027,
      "ĠĠĠĠĠĠĠĠĠĠĠĠĠĠĠĠĠĠĠĠĠĠĠ": 1028,
      "que": 1029,
      "32": 1030,
      "cal": 1031,
      "().": 1032,
      "Ġalso": 1033,
      "ann": 1034,
      "map": 1035,
      "None": 1036,
      "url": 1037,
      "ource": 1038,
      "port": 1039,
      "thod": 1040,
      "ĠTrue": 1041,
      "type": 1042,
      "yp": 1043,
      "Ġcomm": 1044,
      "Ġwere": 1045,
      "vice": 1046,
      "=False": 1047,
      "_y": 1048,
      "=(": 1049,
      "train": 1050,
      "17": 1051,
      "ST": 1052,
      "30": 1053,
      ".plot": 1054,
      ".w": 1055,
      "ient": 1056,
      "Ġwork": 1057,
      "head": 1058,
      "Ġsub": 1059,
      "_x": 1060,
      "ange": 1061,
      "lib": 1062,
      "Ġqu": 1063,
      "ters": 1064,
      "Ġno": 1065,
      "lp": 1066,
      "py": 1067,
      "learn": 1068,
      "urre": 1069,
      "ng": 1070,
      "ments": 1071,
      "ĠĠĠĠĠĠ": 1072,
      "Ġvalue": 1073,
      "reat": 1074,
      "========": 1075,
      "ution": 1076,
      "date": 1077,
      "_model": 1078,
      "//": 1079,
      "ĠâĢľ": 1080,
      "ĠĠĠĠĠĠĠĠĠĠĠĠĠĠĠĠĠĠĠĠĠĠĠĠ": 1081,
      "_o": 1082,
      "raph": 1083,
      "izer": 1084,
      "ords": 1085,
      "lat": 1086,
      "heck": 1087,
      "cent": 1088,
      "file": 1089,
      "oin": 1090,
      "ull": 1091,
      ".S": 1092,
      "ĠThis": 1093,
      "app": 1094,
      "eatures": 1095,
      "arg": 1096,
      "ices": 1097,
      "(b": 1098,
      "_e": 1099,
      "Ġ{}": 1100,
      "ays": 1101,
      ".in": 1102,
      "Ġlog": 1103,
      "(data": 1104,
      "((": 1105,
      "cre": 1106,
      "uth": 1107,
      "round": 1108,
      "ude": 1109,
      ".m": 1110,
      "----------------": 1111,
      "Ġinto": 1112,
      "):": 1113,
      "Ġexp": 1114,
      "Ġpe": 1115,
      "Ġag": 1116,
      "Ġover": 1117,
      "Ġtf": 1118,
      "ities": 1119,
      "[:,": 1120,
      "stem": 1121,
      "_to": 1122,
      "_con": 1123,
      "sed": 1124,
      "RE": 1125,
      "][": 1126,
      "Ġbet": 1127,
      "Ġabout": 1128,
      "Ġgo": 1129,
      "ract": 1130,
      "uc": 1131,
      "ensor": 1132,
      "Ġser": 1133,
      "Ġcount": 1134,
      "Ġtrans": 1135,
      "():Ċ": 1136,
      "13": 1137,
      "_dict": 1138,
      "da": 1139,
      "Ġdif": 1140,
      "Ġmay": 1141,
      "sp": 1142,
      "acc": 1143,
      "Ġreg": 1144,
      "_col": 1145,
      "St": 1146,
      "als": 1147,
      "Ġ['": 1148,
      "output": 1149,
      "gth": 1150,
      "item": 1151,
      "ines": 1152,
      "Ġstud": 1153,
      "ĠĠĠĠĠĠĠĠĊ": 1154,
      "rror": 1155,
      "Ġadd": 1156,
      "(y": 1157,
      "Ġacc": 1158,
      "Ġ+=": 1159,
      "Ġwhen": 1160,
      "med": 1161,
      "ery": 1162,
      "ME": 1163,
      ".j": 1164,
      "ie": 1165,
      "_l": 1166,
      "Ġ[]Ċ": 1167,
      "image": 1168,
      "Ġthan": 1169,
      "99": 1170,
      "_type": 1171,
      "Ġop": 1172,
      "Ġwho": 1173,
      "error": 1174,
      "])": 1175,
      "ils": 1176,
      "Ġthem": 1177,
      "read": 1178,
      ".path": 1179,
      "']Ċ": 1180,
      "fe": 1181,
      "_count": 1182,
      "layer": 1183,
      "################": 1184,
      "ĠIt": 1185,
      "ura": 1186,
      "idth": 1187,
      "Ġyear": 1188,
      "Ġspec": 1189,
      "Ġinput": 1190,
      "ateg": 1191,
      "'],": 1192,
      "ved": 1193,
      "urrent": 1194,
      "ĠFalse": 1195,
      "ake": 1196,
      "Ġmax": 1197,
      "Ġz": 1198,
      "Ġclass": 1199,
      "ponse": 1200,
      "Ġassert": 1201,
      "ormal": 1202,
      "ely": 1203,
      "Ġund": 1204,
      "Ġid": 1205,
      "atter": 1206,
      "Ġ.": 1207,
      "value": 1208,
      "000": 1209,
      "Ġline": 1210,
      "mit": 1211,
      "Ġpl": 1212,
      "_index": 1213,
      "Ġtorch": 1214,
      "och": 1215,
      "place": 1216,
      "Error": 1217,
      "ward": 1218,
      "ven": 1219,
      "Ġfirst": 1220,
      ".C": 1221,
      "Ġac": 1222,
      "__(": 1223,
      "Ġ}": 1224,
      "rix": 1225,
      "_a": 1226,
      "_pro": 1227,
      "how": 1228,
      ".con": 1229,
      "ĠCh": 1230,
      "Ġhis": 1231,
      "user": 1232,
      "Ġmin": 1233,
      "ular": 1234,
      "mat": 1235,
      "\")ĊĊ": 1236,
      "ating": 1237,
      "SE": 1238,
      "Ġthere": 1239,
      "Ġ)Ċ": 1240,
      "ale": 1241,
      "loss": 1242,
      "Ġnumber": 1243,
      "64": 1244,
      "ople": 1245,
      "ility": 1246,
      "Ġcolor": 1247,
      "ctions": 1248,
      "lu": 1249,
      ".read": 1250,
      ".array": 1251,
      "Ġhow": 1252,
      "ID": 1253,
      "Ġused": 1254,
      "umn": 1255,
      "wo": 1256,
      "tt": 1257,
      "Ġoutput": 1258,
      "Ġkey": 1259,
      "Ġonly": 1260,
      "uild": 1261,
      "Ġdist": 1262,
      "qual": 1263,
      "ced": 1264,
      "://": 1265,
      ".de": 1266,
      "Ġits": 1267,
      ")čĊ": 1268,
      "Ġsa": 1269,
      "Ġbeen": 1270,
      "Ġnumpy": 1271,
      "Ġour": 1272,
      "lock": 1273,
      "Ġmo": 1274,
      "OR": 1275,
      "ram": 1276,
      "ugh": 1277,
      "_me": 1278,
      "Ġkn": 1279,
      "24": 1280,
      "vert": 1281,
      "par": 1282,
      "Ġunder": 1283,
      "random": 1284,
      "Ġind": 1285,
      "LE": 1286,
      "labels": 1287,
      "work": 1288,
      "AR": 1289,
      "Ġbo": 1290,
      "Ġtype": 1291,
      "(df": 1292,
      "raw": 1293,
      "emp": 1294,
      "ument": 1295,
      "Ġ@": 1296,
      "Ġeach": 1297,
      ".ĊĊ": 1298,
      "ights": 1299,
      "eature": 1300,
      "_time": 1301,
      "(np": 1302,
      "Ġcal": 1303,
      "Ġany": 1304,
      "ptim": 1305,
      "ule": 1306,
      "Ġincl": 1307,
      "view": 1308,
      "ative": 1309,
      "fter": 1310,
      ".assert": 1311,
      "lob": 1312,
      "rite": 1313,
      ".co": 1314,
      "ilter": 1315,
      "Th": 1316,
      "Ġthese": 1317,
      "ision": 1318,
      "Ġhelp": 1319,
      "Ġfunction": 1320,
      "Ġsklearn": 1321,
      "oug": 1322,
      "ten": 1323,
      "=None": 1324,
      "Ġstart": 1325,
      "num": 1326,
      "ible": 1327,
      "uracy": 1328,
      "amples": 1329,
      "ger": 1330,
      "Ġimp": 1331,
      "img": 1332,
      "_pred": 1333,
      "las": 1334,
      "ble": 1335,
      "Ġvari": 1336,
      "40": 1337,
      "hed": 1338,
      "ats": 1339,
      "ĠUn": 1340,
      "ars": 1341,
      ".y": 1342,
      "Ġim": 1343,
      "ml": 1344,
      "Ġend": 1345,
      "Ġmake": 1346,
      "stance": 1347,
      "irect": 1348,
      "_dir": 1349,
      "Ġ{Ċ": 1350,
      "alth": 1351,
      "ized": 1352,
      "ersion": 1353,
      "Re": 1354,
      "lient": 1355,
      "ffect": 1356,
      "to": 1357,
      "Ġca": 1358,
      "uct": 1359,
      "input": 1360,
      "ren": 1361,
      "Ġshould": 1362,
      "ĠCon": 1363,
      ".h": 1364,
      "atus": 1365,
      "Ġmost": 1366,
      "'.": 1367,
      "ily": 1368,
      "exp": 1369,
      "yn": 1370,
      "lop": 1371,
      "Ġpeople": 1372,
      "Ġgener": 1373,
      "NA": 1374,
      "rough": 1375,
      "search": 1376,
      "\".": 1377,
      "ting": 1378,
      "Ġph": 1379,
      "Ġcl": 1380,
      "main": 1381,
      "Ġopen": 1382,
      "01": 1383,
      "play": 1384,
      "Ġimage": 1385,
      "Frame": 1386,
      "Ġprodu": 1387,
      "(m": 1388,
      "Ġdiffer": 1389,
      "ename": 1390,
      "axis": 1391,
      "_C": 1392,
      "ased": 1393,
      "=[": 1394,
      "pha": 1395,
      "Ġneed": 1396,
      "Ġelif": 1397,
      "Ġindex": 1398,
      "Ġcor": 1399,
      "60": 1400,
      "ĠRe": 1401,
      "_ch": 1402,
      "Ġtra": 1403,
      "Ġ`": 1404,
      "cond": 1405,
      "no": 1406,
      "iter": 1407,
      "ween": 1408,
      "ential": 1409,
      "Ġhigh": 1410,
      "\")": 1411,
      "Ġchild": 1412,
      "Ġwould": 1413,
      "Ġatt": 1414,
      "(),": 1415,
      "22": 1416,
      "layers": 1417,
      ".show": 1418,
      "qui": 1419,
      "Ġhad": 1420,
      "_score": 1421,
      "DE": 1422,
      "Ġpath": 1423,
      "Ġread": 1424,
      "Ġcons": 1425,
      "Ġent": 1426,
      "mages": 1427,
      "ational": 1428,
      "Ġtext": 1429,
      "_csv": 1430,
      ".data": 1431,
      "Ġplot": 1432,
      "zer": 1433,
      "Ġtwo": 1434,
      "ons": 1435,
      "air": 1436,
      "orld": 1437,
      "ameters": 1438,
      "(len": 1439,
      "Ġsuch": 1440,
      "Ġpy": 1441,
      "ts": 1442,
      "values": 1443,
      "erm": 1444,
      "umm": 1445,
      "velop": 1446,
      "33": 1447,
      "Ġstate": 1448,
      "inter": 1449,
      "otal": 1450,
      "Ġed": 1451,
      "oints": 1452,
      "Ġrow": 1453,
      "Ex": 1454,
      "mbda": 1455,
      "ric": 1456,
      "Ġaxis": 1457,
      "IT": 1458,
      "Ġwhat": 1459,
      "ists": 1460,
      "Ġext": 1461,
      "ful": 1462,
      "Ġpol": 1463,
      "lim": 1464,
      "())Ċ": 1465,
      "Ġthrough": 1466,
      "ransform": 1467,
      ".r": 1468,
      "Ġpos": 1469,
      "Ġu": 1470,
      "istory": 1471,
      "ĠWh": 1472,
      "Ġrun": 1473,
      "ization": 1474,
      "ifier": 1475,
      "_P": 1476,
      "ĠEx": 1477,
      "comm": 1478,
      "ross": 1479,
      "ody": 1480,
      "ai": 1481,
      "_len": 1482,
      "Ġrandom": 1483,
      "])ĊĊ": 1484,
      "80": 1485,
      "lean": 1486,
      "Ġsize": 1487,
      ".csv": 1488,
      "Ġmany": 1489,
      "_state": 1490,
      "Ġpo": 1491,
      ".,": 1492,
      ".sub": 1493,
      "att": 1494,
      "plotlib": 1495,
      "(r": 1496,
      "scri": 1497,
      "ner": 1498,
      ".T": 1499,
      "Ġ('": 1500,
      "count": 1501,
      "Con": 1502,
      "ilename": 1503,
      "Ġactiv": 1504,
      "ves": 1505,
      "eras": 1506,
      "Ġtemp": 1507,
      "0000": 1508,
      "Ġsystem": 1509,
      "AL": 1510,
      "pport": 1511,
      "\"\"\"Ċ": 1512,
      "{}": 1513,
      "object": 1514,
      "amp": 1515,
      "Ġvalues": 1516,
      "range": 1517,
      "Ġfig": 1518,
      "reg": 1519,
      "Ġbetween": 1520,
      "Ġ->": 1521,
      "_S": 1522,
      "ages": 1523,
      "ĠQ": 1524,
      ".fit": 1525,
      "Ġlike": 1526,
      "_num": 1527,
      "EN": 1528,
      "Ġdict": 1529,
      "Ġwhere": 1530,
      "ression": 1531,
      "ĠĠĠĠĠĠĠĠĠ": 1532,
      "Ġoff": 1533,
      "Ġtry": 1534,
      "Ġtarget": 1535,
      "code": 1536,
      "Ġdi": 1537,
      "Ġusing": 1538,
      "fore": 1539,
      "Ġloss": 1540,
      "uff": 1541,
      "oken": 1542,
      "unc": 1543,
      "vir": 1544,
      "ding": 1545,
      ")ĊĊĊ": 1546,
      "ower": 1547,
      "Ġdataset": 1548,
      "AN": 1549,
      "pr": 1550,
      "uring": 1551,
      "come": 1552,
      "ural": 1553,
      "Ġdep": 1554,
      "Ġobject": 1555,
      "Ġ{'": 1556,
      ".Data": 1557,
      "ote": 1558,
      ".py": 1559,
      "28": 1560,
      "ique": 1561,
      "****": 1562,
      "lection": 1563,
      "Ġ**": 1564,
      "vol": 1565,
      "Ġ&": 1566,
      "ify": 1567,
      "ypes": 1568,
      "Ġgroup": 1569,
      "andas": 1570,
      "idd": 1571,
      "ru": 1572,
      "param": 1573,
      "Ġdate": 1574,
      "wargs": 1575,
      "ging": 1576,
      "'])Ċ": 1577,
      "Ġraise": 1578,
      ".col": 1579,
      "resent": 1580,
      "Ġpredict": 1581,
      "Ġbatch": 1582,
      ".loc": 1583,
      ".head": 1584,
      "Ġass": 1585,
      "ases": 1586,
      "Ġpass": 1587,
      "index": 1588,
      "_str": 1589,
      "ĠSe": 1590,
      "eps": 1591,
      "(g": 1592,
      "htt": 1593,
      "Ġcreate": 1594,
      "ĠĠĠĠĠĠĠĠĠĠĠĠĠĠĠĠĠĠĠĠĠĠĠĠĠĠĠ": 1595,
      "ock": 1596,
      "Ġmatplotlib": 1597,
      "Ġrequest": 1598,
      "čĊčĊ": 1599,
      "ek": 1600,
      "thon": 1601,
      "arge": 1602,
      "dd": 1603,
      "ider": 1604,
      "90": 1605,
      ".l": 1606,
      "Ġrec": 1607,
      "ants": 1608,
      "Ġdefault": 1609,
      "lose": 1610,
      "ĠIf": 1611,
      "els": 1612,
      "erson": 1613,
      "ences": 1614,
      "formation": 1615,
      "ssage": 1616,
      "ough": 1617,
      "tal": 1618,
      "ulation": 1619,
      "Ġfe": 1620,
      "ning": 1621,
      "Ġmethod": 1622,
      "rol": 1623,
      "_mat": 1624,
      "leg": 1625,
      "arent": 1626,
      "by": 1627,
      "_i": 1628,
      "(re": 1629,
      "Ġdevelop": 1630,
      ".model": 1631,
      "gan": 1632,
      "Ġsur": 1633,
      "ctor": 1634,
      "itial": 1635,
      "Ġlearn": 1636,
      "Ġcent": 1637,
      "''": 1638,
      "Ġam": 1639,
      "ww": 1640,
      "Ġsm": 1641,
      "Ġmod": 1642,
      "_T": 1643,
      "ency": 1644,
      "Name": 1645,
      "Ġuser": 1646,
      "yle": 1647,
      "_value": 1648,
      "Ġback": 1649,
      "(w": 1650,
      "ader": 1651,
      "onth": 1652,
      "Ġafter": 1653,
      "other": 1654,
      "Ġve": 1655,
      "RO": 1656,
      "ving": 1657,
      "Ġpri": 1658,
      "ton": 1659,
      "IC": 1660,
      "75": 1661,
      "results": 1662,
      "trics": 1663,
      "Ġ!": 1664,
      "Ġmy": 1665,
      "Ġwhile": 1666,
      "cont": 1667,
      "ally": 1668,
      "ollow": 1669,
      "Ġfound": 1670,
      "logy": 1671,
      "viron": 1672,
      "ches": 1673,
      "figure": 1674,
      "ĠPro": 1675,
      "Ġav": 1676,
      "Ġthen": 1677,
      "Pro": 1678,
      ".com": 1679,
      "ience": 1680,
      "Ġcurrent": 1681,
      "ĠWe": 1682,
      "odes": 1683,
      ".to": 1684,
      ".load": 1685,
      "ĠAr": 1686,
      "err": 1687,
      "Ġexcept": 1688,
      ".M": 1689,
      "Ġfind": 1690,
      "pi": 1691,
      "hold": 1692,
      "utils": 1693,
      "_key": 1694,
      "des": 1695,
      ".join": 1696,
      "23": 1697,
      "_loss": 1698,
      "?Ċ": 1699,
      ".random": 1700,
      "Ġwell": 1701,
      "ature": 1702,
      "_D": 1703,
      "etwork": 1704,
      "Ġvalid": 1705,
      "ted": 1706,
      "_set": 1707,
      "Ð¾": 1708,
      "Type": 1709,
      "Ġrep": 1710,
      "order": 1711,
      ".is": 1712,
      ".e": 1713,
      "_j": 1714,
      "gy": 1715,
      "ness": 1716,
      "_k": 1717,
      "the": 1718,
      ".__": 1719,
      "back": 1720,
      "Ġcheck": 1721,
      "any": 1722,
      "chool": 1723,
      "45": 1724,
      "indow": 1725,
      "Ġshow": 1726,
      "AS": 1727,
      "ptions": 1728,
      "ĠHe": 1729,
      "ĠâĢĵ": 1730,
      "Ġmean": 1731,
      "lement": 1732,
      "Ġsign": 1733,
      "Ġwater": 1734,
      "ribut": 1735,
      "path": 1736,
      "Ġrel": 1737,
      "ception": 1738,
      "ox": 1739,
      "ty": 1740,
      "Ġyears": 1741,
      "Ġ|": 1742,
      "ES": 1743,
      "_ex": 1744,
      "Ġdifferent": 1745,
      "':Ċ": 1746,
      "valid": 1747,
      ".DataFrame": 1748,
      "70": 1749,
      "Ġ,": 1750,
      "_values": 1751,
      "comp": 1752,
      "ler": 1753,
      "ets": 1754,
      "verage": 1755,
      "(-": 1756,
      "Ġcould": 1757,
      "Ġform": 1758,
      "CT": 1759,
      "Ġsame": 1760,
      "ache": 1761,
      "omp": 1762,
      "wh": 1763,
      ".ex": 1764,
      "pre": 1765,
      "Ġlong": 1766,
      "Ġitem": 1767,
      "ather": 1768,
      "ands": 1769,
      "21": 1770,
      "Wh": 1771,
      "ank": 1772,
      "Ġhealth": 1773,
      "Ġresults": 1774,
      "UT": 1775,
      "pper": 1776,
      "gn": 1777,
      "late": 1778,
      "\"ĊĊ": 1779,
      "Ġjust": 1780,
      "na": 1781,
      "Ġmed": 1782,
      "uch": 1783,
      "(a": 1784,
      "Ġsol": 1785,
      "ove": 1786,
      "Ġfield": 1787,
      "MA": 1788,
      "ublic": 1789,
      "ĠAn": 1790,
      "Ġlow": 1791,
      "Ġ!=": 1792,
      "ds": 1793,
      "Ġpandas": 1794,
      "Ġprog": 1795,
      "uster": 1796,
      "ĠÐ": 1797,
      "uper": 1798,
      "ION": 1799,
      "ash": 1800,
      "Ġprovi": 1801,
      ";Ċ": 1802,
      "Field": 1803,
      "iew": 1804,
      "Ġlevel": 1805,
      "Ġbre": 1806,
      "Ġdes": 1807,
      "_per": 1808,
      "ron": 1809,
      "65": 1810,
      "Ġprocess": 1811,
      "cause": 1812,
      "oci": 1813,
      "Ġinst": 1814,
      "ables": 1815,
      "Ġfact": 1816,
      "cat": 1817,
      "ined": 1818,
      "Ġcontin": 1819,
      "sum": 1820,
      "_by": 1821,
      "}Ċ": 1822,
      "(i": 1823,
      "lable": 1824,
      "Ġcv": 1825,
      "not": 1826,
      "Ġconfig": 1827,
      "Ġmark": 1828,
      "xt": 1829,
      "Ġbecause": 1830,
      "coder": 1831,
      "Ġright": 1832,
      "lasses": 1833,
      "Ġgiv": 1834,
      "Ġdoes": 1835,
      "35": 1836,
      "cores": 1837,
      "={": 1838,
      "ified": 1839,
      "Ðµ": 1840,
      "(st": 1841,
      "irc": 1842,
      "Ġher": 1843,
      "with": 1844,
      "day": 1845,
      "Ġknow": 1846,
      "ssion": 1847,
      "wn": 1848,
      ".A": 1849,
      "_date": 1850,
      "bs": 1851,
      "Ġcontain": 1852,
      "ãģ": 1853,
      "Ġtop": 1854,
      "word": 1855,
      "arm": 1856,
      ".me": 1857,
      "itions": 1858,
      "ually": 1859,
      "_res": 1860,
      "Ġep": 1861,
      "process": 1862,
      "_params": 1863,
      ".D": 1864,
      "[-": 1865,
      "epoch": 1866,
      "Ġfollow": 1867,
      "66": 1868,
      "Ġevery": 1869,
      "rand": 1870,
      "Ġfont": 1871,
      "Ġdec": 1872,
      "NAME": 1873,
      ".predict": 1874,
      "ism": 1875,
      "================": 1876,
      "Ġaw": 1877,
      "Equal": 1878,
      "ever": 1879,
      "orn": 1880,
      "scription": 1881,
      "color": 1882,
      "miss": 1883,
      "ically": 1884,
      "figsize": 1885,
      "box": 1886,
      "flow": 1887,
      "Ð°": 1888,
      "lambda": 1889,
      ".subplot": 1890,
      "umer": 1891,
      "cul": 1892,
      "Ġtotal": 1893,
      "ait": 1894,
      "ail": 1895,
      "Res": 1896,
      "Ġsee": 1897,
      "Ġload": 1898,
      "frame": 1899,
      "Ġargs": 1900,
      ".se": 1901,
      "erty": 1902,
      "\\xb": 1903,
      "icense": 1904,
      "alue": 1905,
      ".title": 1906,
      ".v": 1907,
      "Ġq": 1908,
      "eturn": 1909,
      "Ġconf": 1910,
      "Ġway": 1911,
      "iod": 1912,
      ".zer": 1913,
      "_we": 1914,
      "Ġnn": 1915,
      "Ġbuild": 1916,
      "Ġlabels": 1917,
      "Ġmodels": 1918,
      "lobal": 1919,
      "(h": 1920,
      "Ġincre": 1921,
      "Ġinformation": 1922,
      "au": 1923,
      "ĠĠĠĠĠĠĠĠĠĠĠĠ": 1924,
      "Ġarg": 1925,
      "Class": 1926,
      "Ġeffect": 1927,
      "ries": 1928,
      ".k": 1929,
      "ĠFor": 1930,
      "ĠData": 1931,
      "Ġworld": 1932,
      "Ġresponse": 1933,
      "Ġtraining": 1934,
      "valu": 1935,
      "Ġmust": 1936,
      "Ġpr": 1937,
      "Ġeven": 1938,
      "_cont": 1939,
      "ene": 1940,
      "ification": 1941,
      "move": 1942,
      "Ġinf": 1943,
      "(train": 1944,
      "nect": 1945,
      "quired": 1946,
      "text": 1947,
      "last": 1948,
      "Ġart": 1949,
      "Ġorder": 1950,
      "ume": 1951,
      "meric": 1952,
      "'t": 1953,
      "27": 1954,
      "ivers": 1955,
      "rc": 1956,
      "29": 1957,
      "Ġver": 1958,
      "ited": 1959,
      "orth": 1960,
      "Ġfloat": 1961,
      "reen": 1962,
      "point": 1963,
      "1000": 1964,
      "pace": 1965,
      "ouse": 1966,
      "angu": 1967,
      "isk": 1968,
      "andard": 1969,
      "_features": 1970,
      "Ġest": 1971,
      "opy": 1972,
      "\",\"": 1973,
      "Ġlast": 1974,
      "Ġword": 1975,
      "=['": 1976,
      "pected": 1977,
      "'],Ċ": 1978,
      "_dim": 1979,
      "âĢĻt": 1980,
      "Ġcell": 1981,
      "ince": 1982,
      "_en": 1983,
      "Ġprop": 1984,
      "_names": 1985,
      ".log": 1986,
      "_acc": 1987,
      "_length": 1988,
      "ference": 1989,
      "items": 1990,
      "base": 1991,
      "Ġbest": 1992,
      "34": 1993,
      "update": 1994,
      "Ġshe": 1995,
      "uthor": 1996,
      "ĠĠĠĠĠĠĠĠĠĠĠĠĠ": 1997,
      "Ġvery": 1998,
      "Ġ\\Ċ": 1999,
      "Ġpop": 2000,
      "rip": 2001,
      "Id": 2002,
      "Ġjson": 2003,
      "Ġhum": 2004,
      "Ġcar": 2005,
      "Ġear": 2006,
      "Ġdown": 2007,
      "(model": 2008,
      "Ġcomple": 2009,
      "#Ċ": 2010,
      "Ġsim": 2011,
      ".P": 2012,
      "dir": 2013,
      "\\xf": 2014,
      "Ġexper": 2015,
      "rect": 2016,
      "_text": 2017,
      "Test": 2018,
      "../": 2019,
      "itive": 2020,
      "ster": 2021,
      "ances": 2022,
      "query": 2023,
      ".name": 2024,
      "face": 2025,
      "ustom": 2026,
      "05": 2027,
      "ids": 2028,
      "Ġbefore": 2029,
      "ernel": 2030,
      "_of": 2031,
      "ey": 2032,
      "...": 2033,
      "95": 2034,
      "cri": 2035,
      ".assertEqual": 2036,
      "urs": 2037,
      "Ġlook": 2038,
      "Ġthose": 2039,
      ".figure": 2040,
      ".res": 2041,
      "Ġvis": 2042,
      "_labels": 2043,
      "Ġbeing": 2044,
      "ream": 2045,
      "_matrix": 2046,
      "default": 2047,
      "Ġloc": 2048,
      "itude": 2049,
      "_A": 2050,
      ".mean": 2051,
      "ety": 2052,
      "ffic": 2053,
      "vironment": 2054,
      "ptimizer": 2055,
      "rt": 2056,
      "Ġarray": 2057,
      "ling": 2058,
      "Ġresearch": 2059,
      "Ġdirect": 2060,
      "38": 2061,
      "Reg": 2062,
      "ls": 2063,
      ".zeros": 2064,
      "'),Ċ": 2065,
      "_info": 2066,
      ".L": 2067,
      ".pyplot": 2068,
      "Ġcall": 2069,
      "Ġpartic": 2070,
      ".drop": 2071,
      "isplay": 2072,
      "Ġimg": 2073,
      "umber": 2074,
      "uto": 2075,
      "_input": 2076,
      "legend": 2077,
      "ged": 2078,
      "ared": 2079,
      "tom": 2080,
      "thing": 2081,
      "Ġinclude": 2082,
      "idden": 2083,
      "lack": 2084,
      "Ġ[Ċ": 2085,
      "26": 2086,
      "Ġins": 2087,
      ".save": 2088,
      "ĊĠĠĠĠĊ": 2089,
      "ze": 2090,
      "Ġ)ĊĊ": 2091,
      "-b": 2092,
      "idual": 2093,
      "Ġexample": 2094,
      "ingle": 2095,
      "ummary": 2096,
      "Ġnow": 2097,
      "nal": 2098,
      "right": 2099,
      "Ġchildren": 2100,
      "lish": 2101,
      "ultip": 2102,
      "Ġcond": 2103,
      "my": 2104,
      "_idx": 2105,
      "_F": 2106,
      "ources": 2107,
      "iginal": 2108,
      "Ġproble": 2109,
      "duct": 2110,
      "OT": 2111,
      "').": 2112,
      "Ġcolumns": 2113,
      "tect": 2114,
      "Ġday": 2115,
      "ital": 2116,
      "ĠAmeric": 2117,
      "48": 2118,
      "Ġsuper": 2119,
      "_un": 2120,
      "_le": 2121,
      "Ġnode": 2122,
      "ik": 2123,
      "Ġboth": 2124,
      "36": 2125,
      "land": 2126,
      "Ġhere": 2127,
      "37": 2128,
      "Int": 2129,
      "Ġcause": 2130,
      "hip": 2131,
      "rec": 2132,
      "tick": 2133,
      "iment": 2134,
      "'ĊĊ": 2135,
      "obj": 2136,
      "gest": 2137,
      "_sub": 2138,
      "ias": 2139,
      "osition": 2140,
      "Ġtech": 2141,
      "Ġke": 2142,
      "older": 2143,
      "cer": 2144,
      "_class": 2145,
      "sy": 2146,
      "Ġsupport": 2147,
      ".write": 2148,
      "Ġchar": 2149,
      "(figsize": 2150,
      "_all": 2151,
      "(test": 2152,
      "(input": 2153,
      "Ġemp": 2154,
      "Ġduring": 2155,
      "ĠAs": 2156,
      "({": 2157,
      "Ġtok": 2158,
      "ished": 2159,
      "atic": 2160,
      "Ġperson": 2161,
      "Ġpoint": 2162,
      "Ġhand": 2163,
      "idget": 2164,
      "Ġimportant": 2165,
      "ories": 2166,
      "ration": 2167,
      "prop": 2168,
      "ious": 2169,
      "ameter": 2170,
      "net": 2171,
      ":čĊ": 2172,
      "Ġsaid": 2173,
      "_output": 2174,
      "(col": 2175,
      "ED": 2176,
      "Ġsecond": 2177,
      "show": 2178,
      ",y": 2179,
      "IS": 2180,
      "Ġalpha": 2181,
      "arr": 2182,
      "start": 2183,
      "ability": 2184,
      "Ġ--": 2185,
      "vid": 2186,
      "_dataset": 2187,
      "Ġhtt": 2188,
      "gen": 2189,
      "uration": 2190,
      "Ġcode": 2191,
      ".index": 2192,
      "acter": 2193,
      "ĠDe": 2194,
      ".F": 2195,
      "Ġwrit": 2196,
      ".i": 2197,
      "emb": 2198,
      ".split": 2199,
      "Ð¸": 2200,
      "Ġcommun": 2201,
      "Ġoper": 2202,
      "Ġgood": 2203,
      "_url": 2204,
      "Ġnext": 2205,
      "IL": 2206,
      "ones": 2207,
      "\\xe": 2208,
      "Ġcre": 2209,
      "Ġbody": 2210,
      "bin": 2211,
      "ason": 2212,
      "Ġmuch": 2213,
      "ending": 2214,
      "OL": 2215,
      "_image": 2216,
      ".xlabel": 2217,
      "lear": 2218,
      "pping": 2219,
      "sub": 2220,
      "It": 2221,
      "ane": 2222,
      "king": 2223,
      "Ġref": 2224,
      "_rate": 2225,
      "instance": 2226,
      "\\xc": 2227,
      "Ġlife": 2228,
      "Ch": 2229,
      "'}": 2230,
      ")))Ċ": 2231,
      "Ġagain": 2232,
      "ĠĠĠĠĠĠĠĠĠĠ": 2233,
      ".columns": 2234,
      "(de": 2235,
      "Ġshape": 2236,
      "=self": 2237,
      "Ġallow": 2238,
      "new": 2239,
      "eries": 2240,
      "ĠInt": 2241,
      "ium": 2242,
      "bar": 2243,
      "=t": 2244,
      "Ġcolumn": 2245,
      "--------------------------------": 2246,
      "Model": 2247,
      "pd": 2248,
      ".ylabel": 2249,
      "ators": 2250,
      "Ġsha": 2251,
      "\\xa": 2252,
      ")):Ċ": 2253,
      "width": 2254,
      "Ġreport": 2255,
      "ä¸": 2256,
      "dict": 2257,
      "icle": 2258,
      "ailable": 2259,
      "Ġtr": 2260,
      "anguage": 2261,
      "mber": 2262,
      "Ġfam": 2263,
      "Ġleft": 2264,
      "78": 2265,
      "CH": 2266,
      "aw": 2267,
      "List": 2268,
      "Ġap": 2269,
      "Ġmain": 2270,
      "Ġlarge": 2271,
      "kwargs": 2272,
      "]:Ċ": 2273,
      "attr": 2274,
      "ality": 2275,
      "eta": 2276,
      "icy": 2277,
      "Ġtake": 2278,
      "return": 2279,
      "This": 2280,
      "Ġ[\"": 2281,
      "Ġda": 2282,
      "less": 2283,
      "usion": 2284,
      "_log": 2285,
      "-s": 2286,
      "vers": 2287,
      "api": 2288,
      "44": 2289,
      "Ġdoc": 2290,
      ".âĢĿ": 2291,
      "Ġ\\": 2292,
      "ension": 2293,
      "ref": 2294,
      "\"]Ċ": 2295,
      "Ġpat": 2296,
      "UR": 2297,
      "action": 2298,
      "_label": 2299,
      "Ġhead": 2300,
      ".ar": 2301,
      ").Ċ": 2302,
      "Ġproject": 2303,
      "br": 2304,
      "Ġerror": 2305,
      "ĠYou": 2306,
      "iff": 2307,
      "Ġredu": 2308,
      "Ġgiven": 2309,
      "Ġtitle": 2310,
      "arameters": 2311,
      "cor": 2312,
      "man": 2313,
      "Ġstring": 2314,
      "temp": 2315,
      "Ġmade": 2316,
      "Ġsi": 2317,
      "Ġchange": 2318,
      "verse": 2319,
      "requ": 2320,
      "Ġtak": 2321,
      "open": 2322,
      "istic": 2323,
      "Ġsmall": 2324,
      "ister": 2325,
      "'))Ċ": 2326,
      "nn": 2327,
      "_config": 2328,
      "Ġfood": 2329,
      "Time": 2330,
      "org": 2331,
      "Ġstudents": 2332,
      "ING": 2333,
      "be": 2334,
      "Lo": 2335,
      ".max": 2336,
      "Ġcur": 2337,
      "ĠThey": 2338,
      "Ġocc": 2339,
      "quence": 2340,
      "vern": 2341,
      "tings": 2342,
      "Ġown": 2343,
      "_split": 2344,
      "(['": 2345,
      "ÑĤ": 2346,
      "Ġpower": 2347,
      "ighb": 2348,
      "ãĥ": 2349,
      "ptional": 2350,
      "lower": 2351,
      "Ġgrow": 2352,
      "_max": 2353,
      "_B": 2354,
      "struct": 2355,
      "(e": 2356,
      "ET": 2357,
      "idx": 2358,
      "let": 2359,
      "umerate": 2360,
      "RA": 2361,
      "Ġdim": 2362,
      "obs": 2363,
      "02": 2364,
      "################################": 2365,
      "Ġsample": 2366,
      "(v": 2367,
      "serv": 2368,
      "ategory": 2369,
      "Ġless": 2370,
      "Ġurl": 2371,
      "(l": 2372,
      "Ġret": 2373,
      "_title": 2374,
      "Ġlocal": 2375,
      "scrib": 2376,
      "Ġstudy": 2377,
      "of": 2378,
      "Ġwant": 2379,
      "odule": 2380,
      "_out": 2381,
      "Ġschool": 2382,
      "Ġsum": 2383,
      "Ġgra": 2384,
      "Ġaction": 2385,
      "\\xd": 2386,
      "Ġsys": 2387,
      "lete": 2388,
      "Col": 2389,
      "_ro": 2390,
      ")[": 2391,
      "uple": 2392,
      "mark": 2393,
      "reshold": 2394,
      "Ġenumerate": 2395,
      "Ġfeatures": 2396,
      "ĠĠĠĠĠĠĠĠĠĠĠĠĠĠĠĠĠĠĠĠĠĠĠĠĠĠĠĠĠĠĠ": 2397,
      ".un": 2398,
      "Ġcommon": 2399,
      "ql": 2400,
      "98": 2401,
      "Un": 2402,
      "ients": 2403,
      "ware": 2404,
      "ĠLicense": 2405,
      "_reg": 2406,
      "bose": 2407,
      "ĠReturn": 2408,
      "31": 2409,
      "ãĤ": 2410,
      "Ġtensor": 2411,
      "https": 2412,
      "ĠNew": 2413,
      "Ġposs": 2414,
      "annel": 2415,
      "Ġnormal": 2416,
      "urch": 2417,
      "join": 2418,
      "los": 2419,
      "_from": 2420,
      "abs": 2421,
      "_on": 2422,
      "loy": 2423,
      "Ġnon": 2424,
      "Ġlead": 2425,
      "55": 2426,
      "68": 2427,
      "\"].": 2428,
      "ĠHow": 2429,
      "orted": 2430,
      "config": 2431,
      "lta": 2432,
      "Ġgen": 2433,
      "_M": 2434,
      "Ġbreak": 2435,
      "_ma": 2436,
      "html": 2437,
      "CA": 2438,
      "adata": 2439,
      "We": 2440,
      "ral": 2441,
      "Ġident": 2442,
      "_L": 2443,
      "ilar": 2444,
      "enc": 2445,
      "ention": 2446,
      "Ġsource": 2447,
      "iversity": 2448,
      "ĠAl": 2449,
      "ĠZ": 2450,
      "rows": 2451,
      "lue": 2452,
      "ender": 2453,
      "Ġtreat": 2454,
      "\":Ċ": 2455,
      "stand": 2456,
      "ho": 2457,
      ".group": 2458,
      "Ġproduct": 2459,
      "sets": 2460,
      "asure": 2461,
      "uding": 2462,
      "Ð½": 2463,
      "_with": 2464,
      "_ve": 2465,
      ".B": 2466,
      "Ġwithout": 2467,
      "uments": 2468,
      "ier": 2469,
      "catter": 2470,
      "mon": 2471,
      "Ġdatetime": 2472,
      "Ġinitial": 2473,
      "_mean": 2474,
      "float": 2475,
      "_ind": 2476,
      ")/": 2477,
      "Ġsent": 2478,
      "_error": 2479,
      "Ġevent": 2480,
      "]['": 2481,
      "ules": 2482,
      "_ids": 2483,
      "_counts": 2484,
      "ysis": 2485,
      "255": 2486,
      "Ġpost": 2487,
      "PI": 2488,
      "(k": 2489,
      "42": 2490,
      "\\\\": 2491,
      "mail": 2492,
      "Ġstep": 2493,
      "jor": 2494,
      "method": 2495,
      "pose": 2496,
      "Ġ\",": 2497,
      "ocial": 2498,
      "Ġbu": 2499,
      "off": 2500,
      "aterial": 2501,
      "alpha": 2502,
      "lected": 2503,
      "book": 2504,
      "'),": 2505,
      "Ġcontrol": 2506,
      "ush": 2507,
      "sg": 2508,
      ".time": 2509,
      "Ġepoch": 2510,
      "ives": 2511,
      "rive": 2512,
      "_arg": 2513,
      "oice": 2514,
      "\\n": 2515,
      "iles": 2516,
      "Ġoften": 2517,
      "77": 2518,
      "tric": 2519,
      "_group": 2520,
      "Ġpred": 2521,
      "tle": 2522,
      "Ġ(\"": 2523,
      "pu": 2524,
      "Ġcase": 2525,
      "39": 2526,
      "UN": 2527,
      "Ġchang": 2528,
      "Ġanal": 2529,
      ".legend": 2530,
      "util": 2531,
      "uture": 2532,
      "ccess": 2533,
      "Ġformat": 2534,
      "(name": 2535,
      "md": 2536,
      ".arange": 2537,
      "Ġthree": 2538,
      "Ġsave": 2539,
      ".cont": 2540,
      "Ġcap": 2541,
      "_predict": 2542,
      "Ġspe": 2543,
      "sns": 2544,
      ",'": 2545,
      "_valid": 2546,
      "igma": 2547,
      "(os": 2548,
      "_dist": 2549,
      "imum": 2550,
      "Ġhome": 2551,
      "Ġlearning": 2552,
      "ends": 2553,
      "||": 2554,
      "Ġdise": 2555,
      "Ġì": 2556,
      "ĠĠĠĠĠĠĠĠĠĠĠĠĠĠĠĠĠ": 2557,
      "Se": 2558,
      "Ġcalled": 2559,
      "Ġorgan": 2560,
      "):ĊĊ": 2561,
      "Ġter": 2562,
      "_array": 2563,
      "']['": 2564,
      "ĠĠĠĠĠĠĠĠĠĠĠĠĠĠ": 2565,
      "_min": 2566,
      "Ġaround": 2567,
      "Ġactivation": 2568,
      ":.": 2569,
      "_cl": 2570,
      "Ġlayer": 2571,
      "tes": 2572,
      "ividual": 2573,
      "Ġdtype": 2574,
      "Ġcome": 2575,
      "_th": 2576,
      "To": 2577,
      "'][": 2578,
      "_code": 2579,
      ",\"": 2580,
      "Ġprob": 2581,
      "Ġview": 2582,
      "Cont": 2583,
      "ipel": 2584,
      "stant": 2585,
      ".sum": 2586,
      "']ĊĊ": 2587,
      "axes": 2588,
      "Ġdon": 2589,
      "omen": 2590,
      "ync": 2591,
      "stru": 2592,
      ".G": 2593,
      "IG": 2594,
      "Ġbase": 2595,
      "ÑĢ": 2596,
      "fit": 2597,
      "Ġkeep": 2598,
      "Ġfontsize": 2599,
      "vices": 2600,
      "nder": 2601,
      "Ġ''": 2602,
      "Ġplace": 2603,
      "Ġhuman": 2604,
      "Ġdid": 2605,
      "(lambda": 2606,
      "lag": 2607,
      "orical": 2608,
      "Ġframe": 2609,
      ".im": 2610,
      "ribute": 2611,
      "AB": 2612,
      "lease": 2613,
      "Ġfeature": 2614,
      "ergy": 2615,
      ".subplots": 2616,
      "_for": 2617,
      "Ġet": 2618,
      "Ġtable": 2619,
      "itional": 2620,
      ".text": 2621,
      "Ġconsider": 2622,
      "Ġbel": 2623,
      "Ġ}Ċ": 2624,
      "Ġfiles": 2625,
      "ĠCol": 2626,
      ".ch": 2627,
      "Ġdisc": 2628,
      "AD": 2629,
      "uro": 2630,
      "stra": 2631,
      "]]": 2632,
      "Ġ},Ċ": 2633,
      "hes": 2634,
      "ango": 2635,
      "ĠBut": 2636,
      "riter": 2637,
      "Ġlength": 2638,
      "Ġmet": 2639,
      ".info": 2640,
      "rice": 2641,
      "rel": 2642,
      "keys": 2643,
      "Ġwords": 2644,
      "Ġparams": 2645,
      "ribution": 2646,
      "lood": 2647,
      "batch": 2648,
      "Ġquest": 2649,
      "af": 2650,
      "lication": 2651,
      "Ġrequired": 2652,
      "Ġisinstance": 2653,
      "Ġhim": 2654,
      "Ġsever": 2655,
      "ĠCom": 2656,
      "MP": 2657,
      "Ġenvironment": 2658,
      "orest": 2659,
      "Ã©": 2660,
      "88": 2661,
      "Ġwithin": 2662,
      "ĠInd": 2663,
      "unk": 2664,
      "try": 2665,
      "Ð¾Ð": 2666,
      "Ġ$": 2667,
      "Ġalt": 2668,
      "_mask": 2669,
      "ï¼": 2670,
      "Ġes": 2671,
      "Ġreal": 2672,
      "gine": 2673,
      "Ġ{\"": 2674,
      "ived": 2675,
      "Ġ>=": 2676,
      "mbol": 2677,
      "96": 2678,
      "US": 2679,
      "())ĊĊ": 2680,
      "Classifier": 2681,
      ".values": 2682,
      "=np": 2683,
      "_map": 2684,
      "env": 2685,
      "outh": 2686,
      "ipeline": 2687,
      "gin": 2688,
      "500": 2689,
      "Ġcost": 2690,
      "pos": 2691,
      "pped": 2692,
      "vents": 2693,
      "Ġpres": 2694,
      "ury": 2695,
      "Ġmode": 2696,
      "ĠĠĊ": 2697,
      "sw": 2698,
      "\"],": 2699,
      "ĠRes": 2700,
      "IR": 2701,
      "Ġscore": 2702,
      "ov": 2703,
      "itor": 2704,
      "Ġarea": 2705,
      "Ġexist": 2706,
      "(str": 2707,
      "Ġaccuracy": 2708,
      "Ġappro": 2709,
      "Ġdesign": 2710,
      "_he": 2711,
      "(res": 2712,
      "Ġ<=": 2713,
      "74": 2714,
      "Ġtransform": 2715,
      ")]Ċ": 2716,
      "ounds": 2717,
      ".keras": 2718,
      ".layers": 2719,
      "Ġele": 2720,
      "culate": 2721,
      "03": 2722,
      "oun": 2723,
      "group": 2724,
      "Ġold": 2725,
      "ites": 2726,
      "Ġbased": 2727,
      "04": 2728,
      "gb": 2729,
      "ording": 2730,
      "layout": 2731,
      "jango": 2732,
      "ĠĠĠĠĠĠĠĠĠĠĠĠĊ": 2733,
      "_samples": 2734,
      "Ġpresent": 2735,
      "Ġparent": 2736,
      "_results": 2737,
      "ython": 2738,
      "ools": 2739,
      "Ġincluding": 2740,
      "]))Ċ": 2741,
      "req": 2742,
      "ĉĉĉĉ": 2743,
      "di": 2744,
      "ident": 2745,
      "vest": 2746,
      "vious": 2747,
      "ariable": 2748,
      "lip": 2749,
      "Ñģ": 2750,
      "Ġcontinue": 2751,
      "Ġimages": 2752,
      "Ar": 2753,
      "-f": 2754,
      "atio": 2755,
      "Ġ',": 2756,
      "Ġpublic": 2757,
      "Ġwidth": 2758,
      "ĠTest": 2759,
      "Ġbecome": 2760,
      "aving": 2761,
      "_pos": 2762,
      "inear": 2763,
      "Ġge": 2764,
      "Ġiss": 2765,
      "ead": 2766,
      "Ġ(Ċ": 2767,
      ".comp": 2768,
      "inary": 2769,
      "_loc": 2770,
      "ales": 2771,
      "âĢĶ": 2772,
      "(num": 2773,
      "left": 2774,
      "File": 2775,
      ".find": 2776,
      "Ġcare": 2777,
      "},": 2778,
      "ickle": 2779,
      "dep": 2780,
      "_table": 2781,
      "mplement": 2782,
      "light": 2783,
      "ĠComp": 2784,
      "********": 2785,
      "ĠThere": 2786,
      "_comp": 2787,
      "Ġbook": 2788,
      "Ġtoken": 2789,
      "Ġcour": 2790,
      "Ġenergy": 2791,
      "pply": 2792,
      "Ġvol": 2793,
      "_shape": 2794,
      ")*": 2795,
      "embed": 2796,
      ".o": 2797,
      "Ġhistory": 2798,
      "OD": 2799,
      "Ġfinal": 2800,
      ".from": 2801,
      "iled": 2802,
      "Ġweight": 2803,
      "(path": 2804,
      "ionary": 2805,
      "river": 2806,
      ".scatter": 2807,
      "(D": 2808,
      "Ġleg": 2809,
      "qrt": 2810,
      "bug": 2811,
      "ole": 2812,
      "atural": 2813,
      "ager": 2814,
      "pol": 2815,
      "(se": 2816,
      "arse": 2817,
      "Ġmask": 2818,
      "ags": 2819,
      "top": 2820,
      "Ġmove": 2821,
      "Ġkeras": 2822,
      "Ġmessage": 2823,
      "Ġknown": 2824,
      "Ġemb": 2825,
      "(img": 2826,
      "leep": 2827,
      "Ġrisk": 2828,
      "_new": 2829,
      "Ġstill": 2830,
      "Ġgu": 2831,
      "Ġant": 2832,
      "_scal": 2833,
      "Ġparser": 2834,
      "alk": 2835,
      "ately": 2836,
      "Ġcopy": 2837,
      "conom": 2838,
      "Me": 2839,
      "rack": 2840,
      "anc": 2841,
      "adding": 2842,
      "ĠTo": 2843,
      "ĠAnd": 2844,
      ".iloc": 2845,
      ".rand": 2846,
      "Ġbas": 2847,
      "Ġtask": 2848,
      "ours": 2849,
      "Ġpercent": 2850,
      "ĠIs": 2851,
      "Ġplay": 2852,
      "Ġdisplay": 2853,
      "ond": 2854,
      "(in": 2855,
      "predict": 2856,
      "AC": 2857,
      "www": 2858,
      "Ġteach": 2859,
      "ĠLo": 2860,
      "En": 2861,
      "weight": 2862,
      "_transform": 2863,
      "_N": 2864,
      "Ġperiod": 2865,
      "ocab": 2866,
      "Ġcontext": 2867,
      "HE": 2868,
      "Ġ{}Ċ": 2869,
      "roll": 2870,
      "Ġavailable": 2871,
      "ured": 2872,
      "Ġgovern": 2873,
      "Ġfollowing": 2874,
      "ograph": 2875,
      "Ġthink": 2876,
      "Ġabs": 2877,
      "Ġnetwork": 2878,
      "ĠSc": 2879,
      "Ġmight": 2880,
      "Ġindividual": 2881,
      "Ġgraph": 2882,
      "Ġmonth": 2883,
      "):čĊ": 2884,
      "./": 2885,
      "_temp": 2886,
      "Ġmatrix": 2887,
      "Ġlink": 2888,
      "Ġprogram": 2889,
      "Ġpot": 2890,
      "Ġstruct": 2891,
      "ways": 2892,
      "Ġblock": 2893,
      "Ġparameters": 2894,
      "_or": 2895,
      "tring": 2896,
      ",-": 2897,
      "bers": 2898,
      ",âĢĿ": 2899,
      "Ġfew": 2900,
      "kes": 2901,
      "_batch": 2902,
      "ĠCal": 2903,
      "oid": 2904,
      "Ġmeans": 2905,
      "ĠSo": 2906,
      "hem": 2907,
      "http": 2908,
      "ba": 2909,
      "split": 2910,
      "inc": 2911,
      "ĠĠĠĠĠĠĠĠĠĠĠĠĠĠĠĠĠĠĠĠ": 2912,
      "mission": 2913,
      "ither": 2914,
      "til": 2915,
      "Ġtimes": 2916,
      "Ġdiff": 2917,
      "uter": 2918,
      "go": 2919,
      "Ġunderstand": 2920,
      "Ġexpected": 2921,
      ".org": 2922,
      "stit": 2923,
      "ĠThese": 2924,
      "85": 2925,
      "AG": 2926,
      "Set": 2927,
      "loud": 2928,
      "Ġbro": 2929,
      "Ġ)": 2930,
      "Ġpoints": 2931,
      "PE": 2932,
      "ched": 2933,
      "Ġfull": 2934,
      "Ġlimit": 2935,
      "estim": 2936,
      "Ġrate": 2937,
      "Ġanother": 2938,
      "Ġ'''Ċ": 2939,
      "Ġide": 2940,
      "Ġlogging": 2941,
      "ring": 2942,
      "stamp": 2943,
      ">Ċ": 2944,
      "Ġpract": 2945,
      "Ġeduc": 2946,
      "ĠReturns": 2947,
      "Ġmon": 2948,
      "une": 2949,
      "ively": 2950,
      "_range": 2951,
      "iness": 2952,
      "ĠCreate": 2953,
      ".run": 2954,
      "Ġversion": 2955,
      "_argument": 2956,
      "target": 2957,
      "97": 2958,
      "json": 2959,
      "Ġeas": 2960,
      "Ġland": 2961,
      "UL": 2962,
      "nection": 2963,
      "rist": 2964,
      "Ġverbose": 2965,
      "Ġdb": 2966,
      "ah": 2967,
      "do": 2968,
      "/s": 2969,
      "db": 2970,
      "oh": 2971,
      "ĠâĢĺ": 2972,
      ".txt": 2973,
      "(A": 2974,
      "ift": 2975,
      "Ġelect": 2976,
      "____": 2977,
      "Ġport": 2978,
      "Ġmaterial": 2979,
      "âĢĵ": 2980,
      "Ġpossible": 2981,
      ".value": 2982,
      "De": 2983,
      "ĠĊĊ": 2984,
      "cle": 2985,
      "Ġtre": 2986,
      "erature": 2987,
      "linear": 2988,
      "Ġroot": 2989,
      "Ġsug": 2990,
      "Ġfit": 2991,
      "_img": 2992,
      "andom": 2993,
      "ulti": 2994,
      ".exp": 2995,
      "Ġ\"\"\"ĊĊ": 2996,
      "Ġglobal": 2997,
      "ystem": 2998,
      "utf": 2999,
      "annels": 3000,
      "Ġsingle": 3001,
      "Ob": 3002,
      "})Ċ": 3003,
      ".pro": 3004,
      "]),": 3005,
      "Ġspecific": 3006,
      "ĠEng": 3007,
      "agn": 3008,
      "ech": 3009,
      "Ġaccess": 3010,
      "Ġlet": 3011,
      "space": 3012,
      "ilt": 3013,
      "Ġtri": 3014,
      ".float": 3015,
      "aper": 3016,
      "128": 3017,
      "67": 3018,
      ".en": 3019,
      "_start": 3020,
      "ĠĠĠĠĠĠĠĠĠĠĠĠĠĠĠĠĠĠĠĠĠ": 3021,
      "dataset": 3022,
      "Ġcontent": 3023,
      "Ġimpro": 3024,
      "Ġsw": 3025,
      "ĠList": 3026,
      "Ġappe": 3027,
      "imal": 3028,
      "_form": 3029,
      ".concat": 3030,
      "ĠOr": 3031,
      "ertain": 3032,
      "az": 3033,
      "run": 3034,
      "ĠOn": 3035,
      "Count": 3036,
      "ination": 3037,
      "':'": 3038,
      "ional": 3039,
      "uck": 3040,
      "Ġ##": 3041,
      "_al": 3042,
      "ĠĠĠĠĠĠĠĠĠĠĠĠĠĠĠĠĠĠ": 3043,
      "Ġperform": 3044,
      "69": 3045,
      "year": 3046,
      "=f": 3047,
      "logical": 3048,
      "Ġlaw": 3049,
      "Ġgreat": 3050,
      "title": 3051,
      "Ġabove": 3052,
      "_user": 3053,
      "Ġsuccess": 3054,
      "erc": 3055,
      "Ġinterest": 3056,
      "mt": 3057,
      "'):Ċ": 3058,
      "Ġquery": 3059,
      ".models": 3060,
      "Ġwhe": 3061,
      "ticks": 3062,
      ",:": 3063,
      "ina": 3064,
      "Ġphys": 3065,
      "Ġsince": 3066,
      ".utils": 3067,
      "ensity": 3068,
      "cs": 3069,
      "Ġsocial": 3070,
      "ivity": 3071,
      "Ġbetter": 3072,
      "Ġlight": 3073,
      "ird": 3074,
      "Ġsns": 3075,
      "ians": 3076,
      "lished": 3077,
      "enter": 3078,
      "ropout": 3079,
      "ĠGet": 3080,
      "Ġben": 3081,
      "cur": 3082,
      "total": 3083,
      "Ġtoo": 3084,
      "SS": 3085,
      "Ġ'/": 3086,
      "_and": 3087,
      "Ġage": 3088,
      "âĢľ": 3089,
      "08": 3090,
      "Ġnames": 3091,
      "ready": 3092,
      "Ġkernel": 3093,
      "Ġrespon": 3094,
      "Ġheight": 3095,
      "CO": 3096,
      "_node": 3097,
      "struction": 3098,
      "Ġoriginal": 3099,
      "_result": 3100,
      "Ġmultip": 3101,
      "ĠValue": 3102,
      "(),Ċ": 3103,
      "Ġdevice": 3104,
      "300": 3105,
      "</": 3106,
      "Ġcountry": 3107,
      "Ġfilter": 3108,
      "Ġdevelopment": 3109,
      "oup": 3110,
      "2017": 3111,
      "Ġdiv": 3112,
      "Ġdeter": 3113,
      "over": 3114,
      ".reshape": 3115,
      "Ġscale": 3116,
      "Ġrece": 3117,
      "Ġmath": 3118,
      "_no": 3119,
      "_token": 3120,
      ".create": 3121,
      "Ġgrid": 3122,
      "_string": 3123,
      "IM": 3124,
      "Ġmen": 3125,
      "erties": 3126,
      "ills": 3127,
      "/d": 3128,
      ".id": 3129,
      "aries": 3130,
      ".update": 3131,
      "ipy": 3132,
      "onents": 3133,
      "For": 3134,
      "Ġlanguage": 3135,
      "Ġclean": 3136,
      "Ġspace": 3137,
      "ropy": 3138,
      "Ġhist": 3139,
      "root": 3140,
      ".json": 3141,
      "quire": 3142,
      "LO": 3143,
      ".items": 3144,
      "mm": 3145,
      "state": 3146,
      "ervice": 3147,
      "_iter": 3148,
      "=c": 3149,
      "abel": 3150,
      ")),": 3151,
      ".groupby": 3152,
      "Ġfilename": 3153,
      "actor": 3154,
      "As": 3155,
      "_inter": 3156,
      "Ġmatch": 3157,
      "coding": 3158,
      "ops": 3159,
      "ook": 3160,
      "thers": 3161,
      "ee": 3162,
      "ground": 3163,
      "_grad": 3164,
      "Ġiter": 3165,
      "_R": 3166,
      "94": 3167,
      "(file": 3168,
      "lines": 3169,
      "pecial": 3170,
      "apt": 3171,
      ".arg": 3172,
      "Ġshort": 3173,
      ".train": 3174,
      "NT": 3175,
      "Ġupdate": 3176,
      "hood": 3177,
      "ĠSet": 3178,
      "Ġpack": 3179,
      "2020": 3180,
      "like": 3181,
      "FF": 3182,
      "Value": 3183,
      "_plot": 3184,
      "_int": 3185,
      "astype": 3186,
      "Ġagainst": 3187,
      "Ġdisease": 3188,
      "Ġinteg": 3189,
      "Ġadv": 3190,
      "ero": 3191,
      "Ġcirc": 3192,
      "ogle": 3193,
      ".size": 3194,
      "Ġrest": 3195,
      "Ġtyp": 3196,
      "mory": 3197,
      "era": 3198,
      "arser": 3199,
      "....": 3200,
      "``": 3201,
      "_layer": 3202,
      "\"\"\"ĊĊ": 3203,
      "Ġfin": 3204,
      "~~": 3205,
      "_frame": 3206,
      "icro": 3207,
      "errors": 3208,
      "ulum": 3209,
      "Ġfa": 3210,
      "utes": 3211,
      "Ġdr": 3212,
      ".\"\"\"Ċ": 3213,
      "Ġprovide": 3214,
      "illion": 3215,
      "Ġrepresent": 3216,
      "Ġearly": 3217,
      "Ġair": 3218,
      "},Ċ": 3219,
      "ATE": 3220,
      "ordin": 3221,
      "Ġside": 3222,
      "Ġclient": 3223,
      "_z": 3224,
      ".R": 3225,
      "string": 3226,
      "Ġcorrect": 3227,
      "Ġstatus": 3228,
      "ied": 3229,
      ">>": 3230,
      "atal": 3231,
      "amma": 3232,
      "IP": 3233,
      "Ġlines": 3234,
      "avg": 3235,
      "Ġreco": 3236,
      "Ġbot": 3237,
      "Ġstandard": 3238,
      "grid": 3239,
      "ĊĠĠĠĠĠĠĠĠĊ": 3240,
      "_load": 3241,
      "fg": 3242,
      "Key": 3243,
      "Ġtrue": 3244,
      "Ġturn": 3245,
      "Ġstri": 3246,
      "ĠAd": 3247,
      "issing": 3248,
      "_pre": 3249,
      ".N": 3250,
      "istance": 3251,
      "rs": 3252,
      "Ġidx": 3253,
      "ĠUniversity": 3254,
      "ML": 3255,
      "256": 3256,
      "osed": 3257,
      "_epoch": 3258,
      "Ġamount": 3259,
      "=-": 3260,
      "ĠWhen": 3261,
      "HT": 3262,
      "hy": 3263,
      "oot": 3264,
      "(int": 3265,
      "\"\"\"": 3266,
      "onent": 3267,
      "Ġtechno": 3268,
      "=s": 3269,
      "Ġhy": 3270,
      "ication": 3271,
      "47": 3272,
      "Ġaverage": 3273,
      "}ĊĊ": 3274,
      "An": 3275,
      "çļ": 3276,
      "Ġneg": 3277,
      "uda": 3278,
      "Ġzip": 3279,
      ".ma": 3280,
      "accuracy": 3281,
      "Ġvalidation": 3282,
      "IZ": 3283,
      "gram": 3284,
      "objects": 3285,
      "ĠAmerican": 3286,
      "(tf": 3287,
      "'])ĊĊ": 3288,
      "Ġinstance": 3289,
      "Ġaut": 3290,
      "_function": 3291,
      "Val": 3292,
      "çļĦ": 3293,
      "06": 3294,
      "\"),": 3295,
      "_add": 3296,
      "ĠDef": 3297,
      "enerator": 3298,
      "ering": 3299,
      ".nn": 3300,
      "ixed": 3301,
      "Ġproblem": 3302,
      "(list": 3303,
      "opt": 3304,
      "ĠSp": 3305,
      "[str": 3306,
      "Ġlambda": 3307,
      "Ġauthor": 3308,
      "ought": 3309,
      ":',": 3310,
      "ilities": 3311,
      "Ġconvert": 3312,
      "Ġassoci": 3313,
      "_args": 3314,
      "itch": 3315,
      "_X": 3316,
      "Ġevalu": 3317,
      "ĠĠĠĠĠĠĠĠĠĠĠĠĠĠĠĠĠĠĠĠĠĠĠĠĠ": 3318,
      "Ġweek": 3319,
      "Ġhapp": 3320,
      "Ġdays": 3321,
      "content": 3322,
      "Ġgame": 3323,
      "-Ċ": 3324,
      "Ġtensorflow": 3325,
      "EL": 3326,
      "cast": 3327,
      "Ġcult": 3328,
      "dt": 3329,
      "Ġ),Ċ": 3330,
      "Ġdone": 3331,
      "Ġpla": 3332,
      "(image": 3333,
      "Ġlit": 3334,
      "Ġput": 3335,
      "parse": 3336,
      "latten": 3337,
      "down": 3338,
      "ĠCount": 3339,
      "straint": 3340,
      "Ġposition": 3341,
      "Ġdraw": 3342,
      "ered": 3343,
      "Ġ'.": 3344,
      "_true": 3345,
      "attern": 3346,
      "ĠPh": 3347,
      "Ġsearch": 3348,
      "havi": 3349,
      "board": 3350,
      "utton": 3351,
      ".as": 3352,
      "ology": 3353,
      "_u": 3354,
      "ison": 3355,
      "Ġspecies": 3356,
      ".replace": 3357,
      "Ġinplace": 3358,
      "version": 3359,
      "Ġmus": 3360,
      "aut": 3361,
      "Ġfree": 3362,
      "Ġpage": 3363,
      "Ġalready": 3364,
      "Ġmajor": 3365,
      "Ġcommand": 3366,
      "Ġlik": 3367,
      "Ġtypes": 3368,
      "oy": 3369,
      "Ġunit": 3370,
      "property": 3371,
      "now": 3372,
      "ĠBe": 3373,
      "processing": 3374,
      "alf": 3375,
      "Ġfamily": 3376,
      "_target": 3377,
      "ĠHowever": 3378,
      "('/": 3379,
      "Ġblood": 3380,
      "(S": 3381,
      "_G": 3382,
      "07": 3383,
      "ĠAdd": 3384,
      "way": 3385,
      "Ġelement": 3386,
      "ftware": 3387,
      "_images": 3388,
      "xy": 3389,
      "Ġnatural": 3390,
      "Ġwomen": 3391,
      "eded": 3392,
      "ises": 3393,
      "cope": 3394,
      "-p": 3395,
      ")]": 3396,
      "Ġmetrics": 3397,
      "Ġgrad": 3398,
      "wise": 3399,
      "Ġparticular": 3400,
      "oly": 3401,
      "If": 3402,
      "olution": 3403,
      "ATH": 3404,
      "cessed": 3405,
      "Number": 3406,
      "Ġtool": 3407,
      "race": 3408,
      "eds": 3409,
      "Ġmap": 3410,
      "Ġbus": 3411,
      "_field": 3412,
      "ĠĠĠĠĠĠĠĠĠĠĠĠĠĠĠĠĠĠĠĠĠĠ": 3413,
      "_files": 3414,
      "\").": 3415,
      "ĠSh": 3416,
      "[j": 3417,
      "Ġbox": 3418,
      "ior": 3419,
      "UM": 3420,
      "_end": 3421,
      "wards": 3422,
      "Ġplan": 3423,
      "most": 3424,
      "_ent": 3425,
      "_E": 3426,
      "Ġcreated": 3427,
      "(z": 3428,
      "Ġsimilar": 3429,
      "Or": 3430,
      "agement": 3431,
      "params": 3432,
      ":ĊĊ": 3433,
      "CC": 3434,
      ".keys": 3435,
      "Ġnear": 3436,
      "relu": 3437,
      "lied": 3438,
      "limit": 3439,
      "resh": 3440,
      "Ġaccount": 3441,
      "Ġred": 3442,
      "ideo": 3443,
      "49": 3444,
      "arnings": 3445,
      "volution": 3446,
      "Ġcha": 3447,
      "bot": 3448,
      "sample": 3449,
      "Ġeconom": 3450,
      "Image": 3451,
      "Ġsignific": 3452,
      "PO": 3453,
      "Train": 3454,
      "irection": 3455,
      "Ġsay": 3456,
      "oo": 3457,
      "ĠLe": 3458,
      ".imshow": 3459,
      "Ġdataframe": 3460,
      "Ġdeg": 3461,
      "uffle": 3462,
      "mand": 3463,
      "angle": 3464,
      "Ġsplit": 3465,
      "alt": 3466,
      "(me": 3467,
      "just": 3468,
      "2019": 3469,
      "ĉĉĉ": 3470,
      "Ġseveral": 3471,
      "_at": 3472,
      "_ed": 3473,
      "Ġdescription": 3474,
      "inspace": 3475,
      "Ġfil": 3476,
      "ĠAN": 3477,
      "vis": 3478,
      "ategorical": 3479,
      "bit": 3480,
      ".copy": 3481,
      "(*": 3482,
      "Ġlogger": 3483,
      ".close": 3484,
      "Ġeither": 3485,
      "Ġable": 3486,
      "Ġinit": 3487,
      "Input": 3488,
      "[df": 3489,
      ".pre": 3490,
      "Ġestim": 3491,
      "dm": 3492,
      "raction": 3493,
      "scribe": 3494,
      "Ġstop": 3495,
      "Ġoptimizer": 3496,
      "Ġhttps": 3497,
      "aint": 3498,
      "level": 3499,
      "_color": 3500,
      "gg": 3501,
      "words": 3502,
      "izes": 3503,
      "initial": 3504,
      "!Ċ": 3505,
      "_ad": 3506,
      "Ġlater": 3507,
      "arts": 3508,
      "\"),Ċ": 3509,
      "ĠCan": 3510,
      "istics": 3511,
      ".min": 3512,
      "Ġkind": 3513,
      "eighb": 3514,
      "alle": 3515,
      "Ġtree": 3516,
      "_classes": 3517,
      "uit": 3518,
      "Ġthings": 3519,
      "active": 3520,
      "ributes": 3521,
      "Ġobj": 3522,
      "ĠCO": 3523,
      ".sqrt": 3524,
      "No": 3525,
      "Ġremove": 3526,
      "oper": 3527,
      "Ġgovernment": 3528,
      "ecute": 3529,
      "requency": 3530,
      "\"])Ċ": 3531,
      "_V": 3532,
      "[['": 3533,
      "tf": 3534,
      "fess": 3535,
      "Ġclear": 3536,
      "46": 3537,
      "ATA": 3538,
      "TE": 3539,
      "Ġcharacter": 3540,
      "-c": 3541,
      "mary": 3542,
      "Text": 3543,
      "cing": 3544,
      "Ġlower": 3545,
      "trans": 3546,
      "rie": 3547,
      "(_": 3548,
      "Ġë": 3549,
      "Ġoptim": 3550,
      "ĠĠĠĠĠĠĠĠĠĠĠĠĠĠĠĠĠĠĠĠĠĠĠĠĠĠĠĠĠĠĠĠĠĠĠ": 3551,
      "gment": 3552,
      "lin": 3553,
      "Ġgre": 3554,
      "Ġprote": 3555,
      "Ġcells": 3556,
      "Ġfour": 3557,
      "_dep": 3558,
      "(pro": 3559,
      "_selection": 3560,
      "ental": 3561,
      "ĠCo": 3562,
      "_number": 3563,
      "scale": 3564,
      "Ġrequests": 3565,
      ".linspace": 3566,
      "Ġinvol": 3567,
      "What": 3568,
      "orage": 3569,
      "ret": 3570,
      "Ġlevels": 3571,
      "_scores": 3572,
      ".u": 3573,
      "Ġplant": 3574,
      "Ġconditions": 3575,
      "Ġvariable": 3576,
      "Ġsure": 3577,
      "ĠID": 3578,
      "58": 3579,
      "NN": 3580,
      "57": 3581,
      "ront": 3582,
      "Ġcy": 3583,
      "2018": 3584,
      "_ext": 3585,
      "_H": 3586,
      "ĠGener": 3587,
      "quare": 3588,
      "Ġcross": 3589,
      "rank": 3590,
      "Log": 3591,
      "Ġcmap": 3592,
      "Ġothers": 3593,
      "ĠEn": 3594,
      "Ġpadding": 3595,
      "Ġtreatment": 3596,
      "Ġbelow": 3597,
      "sess": 3598,
      "ĠModel": 3599,
      "Ġbenef": 3600,
      "ĠGod": 3601,
      "fix": 3602,
      "cript": 3603,
      "Ġcho": 3604,
      "Ġscipy": 3605,
      "gether": 3606,
      "_exp": 3607,
      "Ġunique": 3608,
      "lap": 3609,
      "urther": 3610,
      "Ġ]Ċ": 3611,
      "Acc": 3612,
      "ĠUnited": 3613,
      "agg": 3614,
      "Ġuntil": 3615,
      "Ġareas": 3616,
      "_cor": 3617,
      "erial": 3618,
      "nown": 3619,
      "Ġteam": 3620,
      "models": 3621,
      "Path": 3622,
      "Ġwrite": 3623,
      "+'": 3624,
      ":\",": 3625,
      "Ġprevent": 3626,
      "63": 3627,
      "ìĿ": 3628,
      ".E": 3629,
      ".test": 3630,
      "ended": 3631,
      ";ĊĊ": 3632,
      "ĠImage": 3633,
      "urope": 3634,
      "_{": 3635,
      "Ġfar": 3636,
      "apply": 3637,
      ".âĢĿĊ": 3638,
      "_ylabel": 3639,
      "weet": 3640,
      "Ġ[]ĊĊ": 3641,
      "Ġpopulation": 3642,
      "CE": 3643,
      "ĠCont": 3644,
      "igin": 3645,
      "Ġfeel": 3646,
      "Ġcolle": 3647,
      "(max": 3648,
      "clude": 3649,
      "(columns": 3650,
      "var": 3651,
      "æķ": 3652,
      "_width": 3653,
      "_head": 3654,
      "etch": 3655,
      ".grid": 3656,
      "Ġindic": 3657,
      "_sh": 3658,
      "Ġansw": 3659,
      "åĪ": 3660,
      "used": 3661,
      "Ġflow": 3662,
      "Ġamong": 3663,
      ".date": 3664,
      "_line": 3665,
      "Ġdue": 3666,
      "Date": 3667,
      "Ġpay": 3668,
      "(B": 3669,
      "ĠâĢĶ": 3670,
      "aded": 3671,
      "rams": 3672,
      "Ġwindow": 3673,
      "Ġweights": 3674,
      ".metrics": 3675,
      "[(": 3676,
      "-d": 3677,
      "TH": 3678,
      "gor": 3679,
      "ĠOptional": 3680,
      ".png": 3681,
      "Ġwar": 3682,
      "uf": 3683,
      "Ġdest": 3684,
      "_json": 3685,
      "Ġsubject": 3686,
      "Ġalways": 3687,
      "Ġcustom": 3688,
      "ably": 3689,
      "Config": 3690,
      "_an": 3691,
      "Ġbool": 3692,
      "Ġjob": 3693,
      "ught": 3694,
      "Ġnecess": 3695,
      "Al": 3696,
      "Ġgenerate": 3697,
      "pg": 3698,
      "allback": 3699,
      "ributed": 3700,
      "_grid": 3701,
      "Ġwhether": 3702,
      "Ġdeta": 3703,
      "(N": 3704,
      "TP": 3705,
      "43": 3706,
      "Ġstat": 3707,
      "72": 3708,
      "Ġaffect": 3709,
      "Ġleast": 3710,
      "Ġscient": 3711,
      "vered": 3712,
      "Ġpub": 3713,
      "Ġhard": 3714,
      "check": 3715,
      "uss": 3716,
      "09": 3717,
      "command": 3718,
      ".transform": 3719,
      "(output": 3720,
      "Lay": 3721,
      "font": 3722,
      "annot": 3723,
      "Out": 3724,
      "je": 3725,
      ")),Ċ": 3726,
      "uffer": 3727,
      "allen": 3728,
      "_obj": 3729,
      "lev": 3730,
      "]*": 3731,
      "|Ċ": 3732,
      "Ġprec": 3733,
      "Ġawait": 3734,
      "_rec": 3735,
      "Ġpress": 3736,
      "Ġneeds": 3737,
      "views": 3738,
      "iform": 3739,
      "idgets": 3740,
      "Ġoptions": 3741,
      "Ġservice": 3742,
      "(ch": 3743,
      "Form": 3744,
      "ĠValueError": 3745,
      "Qu": 3746,
      "_as": 3747,
      "ĠStates": 3748,
      "Ġcertain": 3749,
      "Ġsymp": 3750,
      "ym": 3751,
      "andler": 3752,
      ",b": 3753,
      "_weights": 3754,
      "ĠNot": 3755,
      "ledge": 3756,
      "ips": 3757,
      ".V": 3758,
      "Ġpotential": 3759,
      "_step": 3760,
      "_fn": 3761,
      "On": 3762,
      "ibility": 3763,
      "quared": 3764,
      "ivation": 3765,
      "Com": 3766,
      "Ġfoc": 3767,
      "('\\": 3768,
      "Ġsession": 3769,
      "ieve": 3770,
      "Ġhttp": 3771,
      "_var": 3772,
      "Comp": 3773,
      "(\"\\": 3774,
      "Ġvir": 3775,
      "Ġface": 3776,
      "_words": 3777,
      "icult": 3778,
      "Ġmer": 3779,
      "dump": 3780,
      ".\"Ċ": 3781,
      "ĠUS": 3782,
      "DF": 3783,
      ".sort": 3784,
      "_trans": 3785,
      "mbers": 3786,
      "Ġgroups": 3787,
      "Ġconnect": 3788,
      "her": 3789,
      "copy": 3790,
      "61": 3791,
      "Ġspecial": 3792,
      "\"{": 3793,
      "Ġsamples": 3794,
      "Ġmaking": 3795,
      "Ġregion": 3796,
      "(cl": 3797,
      "Scal": 3798,
      "ĠAll": 3799,
      "\"))Ċ": 3800,
      "Ġchanges": 3801,
      "ros": 3802,
      "fficient": 3803,
      "Ġequ": 3804,
      "Ġbegin": 3805,
      "Ġens": 3806,
      "pred": 3807,
      "Le": 3808,
      "Ġ``": 3809,
      "Ġsays": 3810,
      "aces": 3811,
      "())": 3812,
      "ĠQu": 3813,
      "ada": 3814,
      "ĠĠĠĠĠĠĠĠĠĠĠĠĠĠĠĠĠĠĠĠĠĠĠĠĠĠĠĠ": 3815,
      "airs": 3816,
      "Ġprom": 3817,
      "Ġlittle": 3818,
      "aring": 3819,
      "Ð»": 3820,
      "_sample": 3821,
      "Ġprevious": 3822,
      "usters": 3823,
      "ctors": 3824,
      "Ġedge": 3825,
      "lan": 3826,
      "Ġsimple": 3827,
      "={'": 3828,
      "_top": 3829,
      "oms": 3830,
      "uid": 3831,
      "ains": 3832,
      "Ġcity": 3833,
      "Ġlayers": 3834,
      "Ġalong": 3835,
      "pri": 3836,
      "ĠAt": 3837,
      "ards": 3838,
      "\"],Ċ": 3839,
      "Ġrows": 3840,
      "ye": 3841,
      "Ġcourse": 3842,
      "Ġsignificant": 3843,
      ".config": 3844,
      "Ġfields": 3845,
      "urve": 3846,
      "AA": 3847,
      "Ġsto": 3848,
      "quential": 3849,
      "isc": 3850,
      "Ġcreat": 3851,
      "*m": 3852,
      "pus": 3853,
      "ĠĠĠĠĠĠĠĠĠĠĠĠĠĠĠĠĠĠĠĠĠĠĠĠĠĠ": 3854,
      "reed": 3855,
      "41": 3856,
      "ustr": 3857,
      "(axis": 3858,
      "'])": 3859,
      "display": 3860,
      "Ġcases": 3861,
      "Ġfuture": 3862,
      "iddle": 3863,
      "ims": 3864,
      "Ġproblems": 3865,
      "icles": 3866,
      "Ġheader": 3867,
      "ado": 3868,
      "Ġsomething": 3869,
      "Ġpredictions": 3870,
      "Ġsupp": 3871,
      "(args": 3872,
      ".count": 3873,
      "Ġsuggest": 3874,
      "GB": 3875,
      "IZE": 3876,
      "asing": 3877,
      "Ġbar": 3878,
      "ĠOR": 3879,
      "tation": 3880,
      "(text": 3881,
      "Ġpur": 3882,
      "gorith": 3883,
      "Ġenc": 3884,
      "oring": 3885,
      "Ġforward": 3886,
      "ĠOne": 3887,
      "Ġsit": 3888,
      "Ġstates": 3889,
      "Ġlab": 3890,
      ".ext": 3891,
      "Ġimpact": 3892,
      "_xlabel": 3893,
      "Ġ[-": 3894,
      "Ġfast": 3895,
      "Ġrequire": 3896,
      "(P": 3897,
      "Ġbig": 3898,
      "olicy": 3899,
      "ĠReg": 3900,
      "Ġbehavi": 3901,
      "Ġvector": 3902,
      "ĠMe": 3903,
      "Ġfac": 3904,
      "ĠException": 3905,
      "Ġembed": 3906,
      "Ġfeed": 3907,
      "åı": 3908,
      "There": 3909,
      "stack": 3910,
      "unique": 3911,
      "Ġess": 3912,
      "Ġsorted": 3913,
      "Ġgive": 3914,
      "oney": 3915,
      "ĠIN": 3916,
      "(M": 3917,
      "hough": 3918,
      "Ġbl": 3919,
      "Ġlin": 3920,
      "replace": 3921,
      "Ġmot": 3922,
      "times": 3923,
      "rade": 3924,
      "auss": 3925,
      "By": 3926,
      "pen": 3927,
      "irectory": 3928,
      "ĉself": 3929,
      "Ġacross": 3930,
      "({'": 3931,
      "Ġhost": 3932,
      "_client": 3933,
      "Regression": 3934,
      "Ġdjango": 3935,
      "Ġrecent": 3936,
      "Not": 3937,
      "ĠRep": 3938,
      "(range": 3939,
      "59": 3940,
      "ulumi": 3941,
      "Ġworking": 3942,
      "Ġinputs": 3943,
      "OP": 3944,
      "79": 3945,
      "ĉif": 3946,
      "73": 3947,
      "ung": 3948,
      "ĠSome": 3949,
      "imple": 3950,
      "okens": 3951,
      "ae": 3952,
      "ently": 3953,
      "erver": 3954,
      "/c": 3955,
      "coded": 3956,
      "else": 3957,
      "aves": 3958,
      "oriz": 3959,
      "KE": 3960,
      "He": 3961,
      "Ġinvest": 3962,
      "conf": 3963,
      ")čĊčĊ": 3964,
      "Dict": 3965,
      "2000": 3966,
      "semb": 3967,
      ".savefig": 3968,
      "ĠWhat": 3969,
      "Ġround": 3970,
      "ux": 3971,
      "_att": 3972,
      "ĠGo": 3973,
      "tain": 3974,
      "=df": 3975,
      "ius": 3976,
      "ising": 3977,
      "76": 3978,
      "Ġstd": 3979,
      "ĠAcc": 3980,
      "[k": 3981,
      "tadata": 3982,
      "Ġenv": 3983,
      "uded": 3984,
      "Ġbrain": 3985,
      "Ġdocument": 3986,
      ".html": 3987,
      "IST": 3988,
      "[f": 3989,
      "asc": 3990,
      ".std": 3991,
      "Ġdeath": 3992,
      "Ġrole": 3993,
      "_prob": 3994,
      "formed": 3995,
      "_run": 3996,
      "]+": 3997,
      "================================": 3998,
      "Ġaxes": 3999,
      "_W": 4000,
      "ĠNe": 4001,
      ")}": 4002,
      ".\"": 4003,
      "lex": 4004,
      "Ġincrease": 4005,
      "Ġrelat": 4006,
      "eam": 4007,
      "ks": 4008,
      "Ġcomb": 4009,
      "mic": 4010,
      "urb": 4011,
      "(loc": 4012,
      "ector": 4013,
      "++": 4014,
      "Ġclose": 4015,
      "Ġsche": 4016,
      "Ġprotect": 4017,
      "56": 4018,
      "doc": 4019,
      "rate": 4020,
      ".Q": 4021,
      "OS": 4022,
      "Ġpast": 4023,
      "quires": 4024,
      "ENT": 4025,
      "54": 4026,
      "IV": 4027,
      "anced": 4028,
      "_tensor": 4029,
      ")))ĊĊ": 4030,
      "Ġlot": 4031,
      "ĠDo": 4032,
      "Ġrecord": 4033,
      "Ġdistance": 4034,
      "mask": 4035,
      ".pi": 4036,
      "Ġem": 4037,
      "Ġlikely": 4038,
      "Ġfigsize": 4039,
      "Ġmodule": 4040,
      "atory": 4041,
      "Ġopt": 4042,
      "Ġ-*": 4043,
      "Ġscal": 4044,
      "_std": 4045,
      "Us": 4046,
      "encies": 4047,
      "ĠPlot": 4048,
      "ithub": 4049,
      "Ġmeasure": 4050,
      "limate": 4051,
      "quences": 4052,
      "Ġtogether": 4053,
      "Ġlocation": 4054,
      "------": 4055,
      "shape": 4056,
      "Ġselect": 4057,
      "_mode": 4058,
      "Object": 4059,
      "_sp": 4060,
      "89": 4061,
      "Ġneeded": 4062,
      "()ĊĊĊ": 4063,
      "_q": 4064,
      "Ġri": 4065,
      "'{": 4066,
      "Ġprovided": 4067,
      "Ġquestion": 4068,
      "_cols": 4069,
      "_ID": 4070,
      "actions": 4071,
      "Ġfore": 4072,
      "(row": 4073,
      "Ġtoday": 4074,
      "anager": 4075,
      "Ġsystems": 4076,
      "node": 4077,
      "Ġhidden": 4078,
      "fric": 4079,
      "merge": 4080,
      "86": 4081,
      "-t": 4082,
      "Ġ'''": 4083,
      "84": 4084,
      "Ġparam": 4085,
      "Ġdictionary": 4086,
      "Ġmethods": 4087,
      "ationship": 4088,
      "acy": 4089,
      "servation": 4090,
      "Ġcompute": 4091,
      "Ġmock": 4092,
      "_graph": 4093,
      "ired": 4094,
      "Ġcountries": 4095,
      "Ġ{}\".": 4096,
      "Ġvariables": 4097,
      "(time": 4098,
      "Ġhigher": 4099,
      "Ġimplement": 4100,
      "ĠMed": 4101,
      "[col": 4102,
      "Ã¡": 4103,
      "abet": 4104,
      "Ġtechn": 4105,
      "(C": 4106,
      "ĠNational": 4107,
      "9999": 4108,
      "Ġinfo": 4109,
      "Ġsite": 4110,
      "Ġtrad": 4111,
      "ĠLog": 4112,
      "aly": 4113,
      "Ġexc": 4114,
      "sk": 4115,
      "Ġcr": 4116,
      "ula": 4117,
      "ĠChrist": 4118,
      "Ġcla": 4119,
      "alls": 4120,
      "LU": 4121,
      "Ġvarious": 4122,
      "Ġnote": 4123,
      "_estim": 4124,
      "Ġcommunity": 4125,
      "here": 4126,
      "Size": 4127,
      "Ġanim": 4128,
      "utions": 4129,
      "_level": 4130,
      "side": 4131,
      "udio": 4132,
      "}/": 4133,
      "Ġaddress": 4134,
      "Ġclo": 4135,
      "lier": 4136,
      "Ġkwargs": 4137,
      ".Con": 4138,
      "earch": 4139,
      "How": 4140,
      "Ġeducation": 4141,
      "mes": 4142,
      "MS": 4143,
      "Ġcluster": 4144,
      "ilit": 4145,
      "ube": 4146,
      "append": 4147,
      "Ġresource": 4148,
      "Ġnumbers": 4149,
      "lation": 4150,
      "Ġfla": 4151,
      "ĠEurope": 4152,
      "_func": 4153,
      "_points": 4154,
      "_weight": 4155,
      "_steps": 4156,
      "ĠNo": 4157,
      "_block": 4158,
      "],[": 4159,
      ".dump": 4160,
      "æķ°": 4161,
      "52": 4162,
      "vate": 4163,
      "Ġsepar": 4164,
      "Ġreason": 4165,
      "(ex": 4166,
      "olute": 4167,
      ".trans": 4168,
      "Ġexperience": 4169,
      "400": 4170,
      "Co": 4171,
      "Ġparameter": 4172,
      "ĠMin": 4173,
      "Ġpolit": 4174,
      "Ent": 4175,
      "Ġmar": 4176,
      "Ġraw": 4177,
      "queue": 4178,
      "Total": 4179,
      "Ġ..": 4180,
      "learning": 4181,
      "ii": 4182,
      "ĠPer": 4183,
      "_object": 4184,
      "Ġdirectory": 4185,
      "Ġreduce": 4186,
      "Ġyoung": 4187,
      "Ġarch": 4188,
      "cade": 4189,
      "mod": 4190,
      "Ġheart": 4191,
      "Ġground": 4192,
      "ï¼Į": 4193,
      "(url": 4194,
      "PS": 4195,
      "urchase": 4196,
      "Ġdig": 4197,
      "Ġusually": 4198,
      "Ġworks": 4199,
      "rap": 4200,
      "Ġequal": 4201,
      "_filter": 4202,
      "incip": 4203,
      "Ġengine": 4204,
      "hot": 4205,
      "State": 4206,
      "depend": 4207,
      ".int": 4208,
      "field": 4209,
      "ĠGe": 4210,
      "Ġcondition": 4211,
      "Ġwhy": 4212,
      "toms": 4213,
      "Ġflu": 4214,
      "ODE": 4215,
      "Ġdel": 4216,
      "hase": 4217,
      "]):Ċ": 4218,
      "Ġreturns": 4219,
      "Ġgeneral": 4220,
      "ressor": 4221,
      "Ġtrack": 4222,
      "Ġassociated": 4223,
      "(out": 4224,
      "ĠEar": 4225,
      "_prop": 4226,
      "OC": 4227,
      "uplic": 4228,
      "View": 4229,
      "Ġrelated": 4230,
      "Ġclasses": 4231,
      "(value": 4232,
      "Ġdifficult": 4233,
      "ĠAct": 4234,
      "Ġpython": 4235,
      "abled": 4236,
      "Ġmakes": 4237,
      "(result": 4238,
      "_sum": 4239,
      "_loader": 4240,
      ":-": 4241,
      "ulate": 4242,
      "best": 4243,
      "Ġenough": 4244,
      "ĠTime": 4245,
      "_off": 4246,
      "ĠBy": 4247,
      "atches": 4248,
      "null": 4249,
      "Ġimprove": 4250,
      "_RE": 4251,
      "Ġtechnology": 4252,
      "aborn": 4253,
      "Ġanalysis": 4254,
      "hi": 4255,
      "Ġpositive": 4256,
      "()[": 4257,
      "Ġstats": 4258,
      "Ġcsv": 4259,
      "ĠCheck": 4260,
      "atrix": 4261,
      "([[": 4262,
      "iate": 4263,
      "bre": 4264,
      "2016": 4265,
      "ynam": 4266,
      "Ġseries": 4267,
      "ĠRandom": 4268,
      "Ġvar": 4269,
      "(T": 4270,
      "Net": 4271,
      "amin": 4272,
      "Ġgoing": 4273,
      "Ġconv": 4274,
      "Ġnet": 4275,
      ")).": 4276,
      "Ġtw": 4277,
      "izing": 4278,
      "ached": 4279,
      "orts": 4280,
      "points": 4281,
      "pecially": 4282,
      "DA": 4283,
      "ATION": 4284,
      "qdm": 4285,
      "blue": 4286,
      "step": 4287,
      "Ġimm": 4288,
      "Ġct": 4289,
      "delta": 4290,
      "You": 4291,
      "Ġmsg": 4292,
      "tion": 4293,
      "Ġyield": 4294,
      "Ġcannot": 4295,
      "Ġarticle": 4296,
      "Ġepochs": 4297,
      "Ġterm": 4298,
      "Ġaway": 4299,
      "62": 4300,
      ".filter": 4301,
      "ignment": 4302,
      "Ġsteps": 4303,
      "Ġcut": 4304,
      "ocol": 4305,
      "_sim": 4306,
      "Ġ>>>": 4307,
      "Des": 4308,
      "ĠĠĠĠĠĠĠĠĠĠĠĠĠĠĠĠĠĠĠĠĠĠĠĠĠĠĠĠĠĠĠĠĠĠĠĠĠĠĠĠĠĠĠĠĠĠĠĠĠĠĠĠĠĠĠĠĠĠĠĠĠĠĠĠ": 4309,
      "rees": 4310,
      "Ġaccording": 4311,
      "ause": 4312,
      "_layout": 4313,
      "vals": 4314,
      "53": 4315,
      "Is": 4316,
      "Ġseed": 4317,
      "acity": 4318,
      "rial": 4319,
      "number": 4320,
      "Ġdeep": 4321,
      "Ġseem": 4322,
      "rb": 4323,
      "rodu": 4324,
      "_check": 4325,
      "ots": 4326,
      "Ġpatients": 4327,
      "Ġremo": 4328,
      "\\u": 4329,
      "Ġ],Ċ": 4330,
      "(q": 4331,
      "Ġpickle": 4332,
      "Ġill": 4333,
      "_feature": 4334,
      "Ġauth": 4335,
      "Ġ...": 4336,
      "osp": 4337,
      "_status": 4338,
      "Ġhel": 4339,
      "_folder": 4340,
      "Ġpers": 4341,
      "missions": 4342,
      "ensions": 4343,
      ".bar": 4344,
      "Ġstre": 4345,
      "ĠPath": 4346,
      "Max": 4347,
      ")+": 4348,
      "Ġresources": 4349,
      "tic": 4350,
      "2015": 4351,
      "ecut": 4352,
      "har": 4353,
      "ociety": 4354,
      "ised": 4355,
      "Ġelements": 4356,
      "001": 4357,
      "User": 4358,
      "[t": 4359,
      "ERS": 4360,
      "*(": 4361,
      "enate": 4362,
      "(co": 4363,
      "Ġcancer": 4364,
      "selves": 4365,
      "Ġhouse": 4366,
      "Ġlat": 4367,
      "oss": 4368,
      "ĠAfric": 4369,
      "vision": 4370,
      "]]Ċ": 4371,
      "pc": 4372,
      "lain": 4373,
      "Ġmarker": 4374,
      ".he": 4375,
      "Ġang": 4376,
      "olist": 4377,
      ".list": 4378,
      "ILE": 4379,
      "[idx": 4380,
      "Ġradi": 4381,
      "_tr": 4382,
      "fill": 4383,
      "Ġmaint": 4384,
      "Ġ((": 4385,
      "87": 4386,
      "Ġscores": 4387,
      "bon": 4388,
      "_norm": 4389,
      "Ġremain": 4390,
      "Ġnever": 4391,
      "Ġtag": 4392,
      "numpy": 4393,
      "Ġobjects": 4394,
      "Index": 4395,
      "ked": 4396,
      "Ġitems": 4397,
      "Ad": 4398,
      ".compile": 4399,
      "Ġhaving": 4400,
      "92": 4401,
      "_,": 4402,
      "-%": 4403,
      "Ġlate": 4404,
      "Item": 4405,
      "iver": 4406,
      "----------": 4407,
      "mar": 4408,
      "ometry": 4409,
      "ildren": 4410,
      "ategories": 4411,
      "ĠIS": 4412,
      "Ġpolicy": 4413,
      "Ġwriting": 4414,
      "Ġcenter": 4415,
      "Ġsimp": 4416,
      "Ġparse": 4417,
      ".objects": 4418,
      "ĠĠĠĠĠĠĠĠĠĠĠĠĠĠĠĠĠĠĠĠĠĠĠĠĠĠĠĠĠ": 4419,
      "Ġmillion": 4420,
      "Per": 4421,
      "estyle": 4422,
      "Ġtemperature": 4423,
      "SV": 4424,
      "Ġdt": 4425,
      "Ġseen": 4426,
      "ouble": 4427,
      "lies": 4428,
      "Node": 4429,
      "Ġonce": 4430,
      "Ġpaper": 4431,
      "Ġtesting": 4432,
      "=ax": 4433,
      ".db": 4434,
      "respon": 4435,
      "vie": 4436,
      "can": 4437,
      "ursor": 4438,
      "All": 4439,
      "lug": 4440,
      "izers": 4441,
      "Ġextract": 4442,
      "Ã³": 4443,
      "Ġstore": 4444,
      "=[\"": 4445,
      "Def": 4446,
      "lice": 4447,
      "Ġhold": 4448,
      "eder": 4449,
      "Ġoccur": 4450,
      "alance": 4451,
      "umb": 4452,
      "Ġways": 4453,
      "icial": 4454,
      "vidence": 4455,
      "Ġdistribution": 4456,
      "ga": 4457,
      "ĠNorth": 4458,
      "uel": 4459,
      "Ġinv": 4460,
      "Up": 4461,
      "ults": 4462,
      "Ġthreshold": 4463,
      "black": 4464,
      "Ġblack": 4465,
      "51": 4466,
      "Params": 4467,
      "oment": 4468,
      "icks": 4469,
      "ressed": 4470,
      "eger": 4471,
      "Ġthought": 4472,
      "ensive": 4473,
      "_normal": 4474,
      "andid": 4475,
      "=p": 4476,
      "ued": 4477,
      "arning": 4478,
      "Ġlibr": 4479,
      "ĠOF": 4480,
      "HO": 4481,
      "Ġcontains": 4482,
      "Ġrefer": 4483,
      "93": 4484,
      "Ġdrop": 4485,
      "fs": 4486,
      "lor": 4487,
      "ĠWith": 4488,
      "info": 4489,
      "ade": 4490,
      "cv": 4491,
      "/p": 4492,
      "Ġcrit": 4493,
      ":`": 4494,
      "(request": 4495,
      "()čĊ": 4496,
      "Ġstrong": 4497,
      "ette": 4498,
      "\"):Ċ": 4499,
      "=d": 4500,
      "(filename": 4501,
      "lications": 4502,
      "_SIZE": 4503,
      "Ġprofess": 4504,
      "quee": 4505,
      "_qu": 4506,
      "Ġbir": 4507,
      "Ġstyle": 4508,
      "10000": 4509,
      "âĢĻre": 4510,
      "Ġfurther": 4511,
      "ĠPre": 4512,
      "ĠType": 4513,
      "ownload": 4514,
      "cket": 4515,
      ".user": 4516,
      "Ġapply": 4517,
      "Ġmultiple": 4518,
      "Ġ{}'.": 4519,
      "CV": 4520,
      "_columns": 4521,
      "Ġactivity": 4522,
      "Ġestab": 4523,
      "_clean": 4524,
      "Ġ\"\\": 4525,
      "vide": 4526,
      "Ġhowever": 4527,
      "Ġquant": 4528,
      "Ġmeas": 4529,
      "rag": 4530,
      "Ġtuple": 4531,
      "raft": 4532,
      "Ġoffer": 4533,
      "dev": 4534,
      "normal": 4535,
      "\"][\"": 4536,
      "Ġwide": 4537,
      "Ġvisual": 4538,
      "ipe": 4539,
      "_channels": 4540,
      "ategy": 4541,
      ".dot": 4542,
      "arameter": 4543,
      "oman": 4544,
      "Ġobtain": 4545,
      "Ġlr": 4546,
      "Ġsig": 4547,
      "Ġeffects": 4548,
      "}\")Ċ": 4549,
      "Ġfun": 4550,
      ".hist": 4551,
      "Ġcentury": 4552,
      "Ġ[[": 4553,
      ".num": 4554,
      "Ġproduction": 4555,
      "Ġchem": 4556,
      "_up": 4557,
      "Ġevents": 4558,
      "ĠArgs": 4559,
      "Ġnecessary": 4560,
      "eng": 4561,
      "ODO": 4562,
      "periment": 4563,
      "ission": 4564,
      "Ġserver": 4565,
      "]).": 4566,
      "Ġ\"/": 4567,
      "bl": 4568,
      "conv": 4569,
      "ening": 4570,
      "Ġmig": 4571,
      "Ġcalculate": 4572,
      "reshape": 4573,
      "Ġsurface": 4574,
      "Ġquality": 4575,
      "osis": 4576,
      "Ġfunctions": 4577,
      "_indices": 4578,
      "ĠWorld": 4579,
      "Ðº": 4580,
      "artment": 4581,
      "ming": 4582,
      "ĠUse": 4583,
      "cm": 4584,
      "Ġinflu": 4585,
      "common": 4586,
      "_one": 4587,
      "-g": 4588,
      "AP": 4589,
      "Ġextra": 4590,
      "150": 4591,
      "Ġ//": 4592,
      "_depth": 4593,
      "ana": 4594,
      "ranch": 4595,
      ":\\": 4596,
      "Ġbound": 4597,
      "ele": 4598,
      "Ġnumer": 4599,
      "Ġlinewidth": 4600,
      "(new": 4601,
      "Ġproducts": 4602,
      "uation": 4603,
      "lr": 4604,
      "Ġactual": 4605,
      "idence": 4606,
      "rations": 4607,
      "_lo": 4608,
      "store": 4609,
      "Ġasync": 4610,
      "Inter": 4611,
      "Ġrecomm": 4612,
      "(log": 4613,
      "ssages": 4614,
      "_filename": 4615,
      "score": 4616,
      "Ġespecially": 4617,
      "GE": 4618,
      "center": 4619,
      "Ġfill": 4620,
      "host": 4621,
      "Ġbins": 4622,
      "iol": 4623,
      "ĠĠĠĠĠĠĠĠĠĠĠĠĠĠĠĠĠĠĠĠĠĠĠĠĠĠĠĠĠĠ": 4624,
      "Ġann": 4625,
      "}.": 4626,
      "Ġtaken": 4627,
      "ĠIP": 4628,
      "ided": 4629,
      "Ġ\".": 4630,
      ".ones": 4631,
      "Ġpas": 4632,
      "Ġphysical": 4633,
      "FT": 4634,
      "Ġemploy": 4635,
      "_accuracy": 4636,
      "Ġplants": 4637,
      "cel": 4638,
      "Ġ'-": 4639,
      "Ġtmp": 4640,
      "amb": 4641,
      "Exception": 4642,
      "peed": 4643,
      "cret": 4644,
      "_row": 4645,
      "eighbors": 4646,
      "upport": 4647,
      "Ġregular": 4648,
      "Ġphot": 4649,
      "Ġtqdm": 4650,
      "Ġwhole": 4651,
      "Ġweb": 4652,
      "Ġmass": 4653,
      "Box": 4654,
      "ili": 4655,
      "à¸": 4656,
      "Ġbuilding": 4657,
      "Ġwhite": 4658,
      "Ġsequence": 4659,
      "ftmax": 4660,
      "refix": 4661,
      "ides": 4662,
      "Ġcomplex": 4663,
      "Ġbit": 4664,
      "_year": 4665,
      "area": 4666,
      "drop": 4667,
      "ario": 4668,
      "_base": 4669,
      "Ġknowledge": 4670,
      "Ġshare": 4671,
      "Ġattack": 4672,
      "Of": 4673,
      "Ġsort": 4674,
      "urren": 4675,
      "Ġparts": 4676,
      "cho": 4677,
      "ellow": 4678,
      "Ġsrc": 4679,
      "']:Ċ": 4680,
      "_embed": 4681,
      "_DIR": 4682,
      "ignal": 4683,
      "aved": 4684,
      "_nodes": 4685,
      "Ġsoftware": 4686,
      "FA": 4687,
      "[key": 4688,
      "Pool": 4689,
      "vm": 4690,
      "With": 4691,
      "ĠJoh": 4692,
      "æľ": 4693,
      ".str": 4694,
      "_column": 4695,
      "rict": 4696,
      "rypt": 4697,
      "ried": 4698,
      "Ġmembers": 4699,
      "queeze": 4700,
      "Ġprep": 4701,
      "_item": 4702,
      "\\xff": 4703,
      "_report": 4704,
      "_seq": 4705,
      "Ġdisco": 4706,
      "Ġreally": 4707,
      "_total": 4708,
      "Ġconc": 4709,
      "=n": 4710,
      "Ġstructure": 4711,
      "ĠBrit": 4712,
      "Ġcls": 4713,
      "wd": 4714,
      "Ġbi": 4715,
      "###": 4716,
      "Ġvideo": 4717,
      "_PATH": 4718,
      "_format": 4719,
      "123": 4720,
      "'''Ċ": 4721,
      "sort": 4722,
      ".nd": 4723,
      "Ġparticip": 4724,
      "aff": 4725,
      "_version": 4726,
      "msg": 4727,
      "Ġrights": 4728,
      "INT": 4729,
      ".reset": 4730,
      "uccess": 4731,
      "Ġprediction": 4732,
      "ournal": 4733,
      "Ġsettings": 4734,
      "std": 4735,
      "Ġrecogn": 4736,
      "Ġprice": 4737,
      "Ġterms": 4738,
      "Ġgrowth": 4739,
      "igned": 4740,
      "Ġstudies": 4741,
      "table": 4742,
      "cols": 4743,
      "ĠImport": 4744,
      "(G": 4745,
      "ĠSee": 4746,
      "Ġprior": 4747,
      "ĠDep": 4748,
      "mse": 4749,
      ".apply": 4750,
      "Ġoutputs": 4751,
      "Ġchallen": 4752,
      "ĠGerm": 4753,
      "ilon": 4754,
      "83": 4755,
      "Ġcod": 4756,
      "Ġpain": 4757,
      "Ġsn": 4758,
      "('../": 4759,
      "Ã£": 4760,
      "Ġsuff": 4761,
      "median": 4762,
      "rary": 4763,
      "Ġmarket": 4764,
      "ĠState": 4765,
      "_stats": 4766,
      "Ġseaborn": 4767,
      "Ġanaly": 4768,
      "mi": 4769,
      "_types": 4770,
      "script": 4771,
      "ĠAb": 4772,
      "(F": 4773,
      "Ġdetect": 4774,
      "Ġder": 4775,
      "_get": 4776,
      "known": 4777,
      "Ġsens": 4778,
      "TR": 4779,
      "'+": 4780,
      "Ġaccept": 4781,
      "Ñĥ": 4782,
      "came": 4783,
      "aussian": 4784,
      ".open": 4785,
      "Ġrather": 4786,
      "Ġnorm": 4787,
      "_fit": 4788,
      "[p": 4789,
      "ĠEnglish": 4790,
      "Ġadded": 4791,
      "has": 4792,
      "Ġfigure": 4793,
      "Ġpad": 4794,
      "files": 4795,
      "UP": 4796,
      "ĠApp": 4797,
      "_ST": 4798,
      "Ġ'\\": 4799,
      "91": 4800,
      "alysis": 4801,
      "Ġscience": 4802,
      "zz": 4803,
      "ariables": 4804,
      "Ð¼": 4805,
      "ica": 4806,
      "gorithm": 4807,
      "imp": 4808,
      "_point": 4809,
      "ĠTrain": 4810,
      "II": 4811,
      "Ġfunc": 4812,
      "Ġglob": 4813,
      "-in": 4814,
      "Dataset": 4815,
      "Ġsymbol": 4816,
      "Ġaddition": 4817,
      "Ġign": 4818,
      "Ġach": 4819,
      "Ġfish": 4820,
      "2014": 4821,
      "div": 4822,
      "Ġmemory": 4823,
      "Ġrunning": 4824,
      "Ġ:Ċ": 4825,
      "_gen": 4826,
      "Ġanswer": 4827,
      "fully": 4828,
      "Ġinstead": 4829,
      "Sub": 4830,
      "Scaler": 4831,
      "hest": 4832,
      "ĠMan": 4833,
      ".debug": 4834,
      "Ġ#Ċ": 4835,
      "(u": 4836,
      "Ġmach": 4837,
      "Ġchannel": 4838,
      "ĊĊĊĊ": 4839,
      ".reg": 4840,
      "Ġmissing": 4841,
      "Ġentry": 4842,
      "Ġindu": 4843,
      "Ġentire": 4844,
      "kl": 4845,
      "Ġfail": 4846,
      "first": 4847,
      "Ġcolors": 4848,
      "Ġtests": 4849,
      "Ġ'<": 4850,
      "Ġeff": 4851,
      "Ġstudent": 4852,
      "eli": 4853,
      "_doc": 4854,
      "_spec": 4855,
      "81": 4856,
      "71": 4857,
      "aste": 4858,
      "ordinates": 4859,
      "'},Ċ": 4860,
      "Ġexpl": 4861,
      "latform": 4862,
      "Ġ'_": 4863,
      "luster": 4864,
      "Ġsolution": 4865,
      "source": 4866,
      "ĠThat": 4867,
      "ĠIntern": 4868,
      "post": 4869,
      "Ġsleep": 4870,
      "Ġir": 4871,
      "Ġissues": 4872,
      "Ġrelationship": 4873,
      "(key": 4874,
      "82": 4875,
      "reset": 4876,
      "_app": 4877,
      "(o": 4878,
      "DS": 4879,
      "Ġsymptoms": 4880,
      "Ġbecame": 4881,
      "inition": 4882,
      "illa": 4883,
      "assert": 4884,
      "}\".": 4885,
      "Ġforce": 4886,
      "rown": 4887,
      "Ġmind": 4888,
      "Ġactually": 4889,
      "[c": 4890,
      "Ġrender": 4891,
      "Ġnut": 4892,
      ".status": 4893,
      ").__": 4894,
      "po": 4895,
      "uous": 4896,
      "Ġlive": 4897,
      "ĠHealth": 4898,
      "filter": 4899,
      "}'.": 4900,
      "TI": 4901,
      "aking": 4902,
      "tocol": 4903,
      ")')Ċ": 4904,
      "Info": 4905,
      "Response": 4906,
      "(dataset": 4907,
      "Ġfri": 4908,
      "/b": 4909,
      "_work": 4910,
      "ogram": 4911,
      "curity": 4912,
      "Ã£o": 4913,
      "Ġfive": 4914,
      "Ġ*Ċ": 4915,
      "Ġeng": 4916,
      "zero": 4917,
      "EST": 4918,
      "Ġcalc": 4919,
      "_O": 4920,
      "Ġreplace": 4921,
      "(exp": 4922,
      "ĠAss": 4923,
      "olar": 4924,
      ".ro": 4925,
      "Ġactivities": 4926,
      "]])Ċ": 4927,
      "users": 4928,
      ")-": 4929,
      "Loc": 4930,
      "emale": 4931,
      "enn": 4932,
      "Ġstory": 4933,
      "Ġå": 4934,
      "ength": 4935,
      "omin": 4936,
      "Ġnodes": 4937,
      "torch": 4938,
      "Ġconsidered": 4939,
      "chema": 4940,
      "_order": 4941,
      "reme": 4942,
      "system": 4943,
      "Ġfactor": 4944,
      "Ġhalf": 4945,
      "(object": 4946,
      "2010": 4947,
      "_response": 4948,
      "Ġheat": 4949,
      "ĠParameters": 4950,
      "erv": 4951,
      "Ġpurpose": 4952,
      "dings": 4953,
      ",čĊ": 4954,
      "íķ": 4955,
      "Request": 4956,
      "_price": 4957,
      "static": 4958,
      "Ġquick": 4959,
      "::": 4960,
      "_vector": 4961,
      "AM": 4962,
      "Ġskills": 4963,
      "Ġreading": 4964,
      "Ġtell": 4965,
      "(__": 4966,
      "Case": 4967,
      "Ġloop": 4968,
      "Ġ\"Ċ": 4969,
      "Ġsignal": 4970,
      "/data": 4971,
      "ui": 4972,
      "Ġdoesn": 4973,
      "Ġattention": 4974,
      "andle": 4975,
      "ados": 4976,
      "Ġobser": 4977,
      "When": 4978,
      "strip": 4979,
      "ĠName": 4980,
      "oura": 4981,
      "unity": 4982,
      "Ġpressure": 4983,
      "_param": 4984,
      "ĠDes": 4985,
      "Ġinc": 4986,
      "Ġdepend": 4987,
      "stract": 4988,
      "_query": 4989,
      "Ġho": 4990,
      "Ġvs": 4991,
      "moid": 4992,
      "(cont": 4993,
      "uler": 4994,
      "Ġquestions": 4995,
      "=b": 4996,
      "weights": 4997,
      "Ġetc": 4998,
      "Ġsix": 4999,
      "[:-": 5000,
      "ĠCON": 5001,
      "oral": 5002,
      "/(": 5003,
      "essage": 5004,
      "_NAME": 5005,
      "Ġsigma": 5006,
      "One": 5007,
      "'))ĊĊ": 5008,
      "ened": 5009,
      "ĠWar": 5010,
      "_request": 5011,
      "ymbol": 5012,
      "2012": 5013,
      "2013": 5014,
      ".query": 5015,
      "Ġdescrib": 5016,
      "Ġactive": 5017,
      "ĠStud": 5018,
      "Ġeps": 5019,
      "Add": 5020,
      "Ġsat": 5021,
      "entence": 5022,
      ".parse": 5023,
      "rf": 5024,
      "Ġmeet": 5025,
      "mag": 5026,
      "unch": 5027,
      ".where": 5028,
      "phere": 5029,
      "rac": 5030,
      "pass": 5031,
      "ilters": 5032,
      "otes": 5033,
      "status": 5034,
      "sm": 5035,
      "ession": 5036,
      "istry": 5037,
      "Ġusers": 5038,
      "iqu": 5039,
      "Ġavoid": 5040,
      "_raw": 5041,
      "link": 5042,
      "dated": 5043,
      "write": 5044,
      "512": 5045,
      "IO": 5046,
      "[index": 5047,
      "using": 5048,
      "Ġencoding": 5049,
      "Tree": 5050,
      "/t": 5051,
      "Ġnull": 5052,
      "names": 5053,
      "_initial": 5054,
      "stype": 5055,
      "ĠDr": 5056,
      "2021": 5057,
      "Ġprimary": 5058,
      "oration": 5059,
      "SC": 5060,
      "ico": 5061,
      "/M": 5062,
      "Ġcomplete": 5063,
      "Ã§": 5064,
      "Ġlinear": 5065,
      "Ġ[]": 5066,
      "_diff": 5067,
      ".ra": 5068,
      "String": 5069,
      "ĠStandard": 5070,
      "uce": 5071,
      "project": 5072,
      "Ġwon": 5073,
      "Color": 5074,
      "hel": 5075,
      "KEY": 5076,
      "isp": 5077,
      "Ġdir": 5078,
      "chan": 5079,
      "Ġcontaining": 5080,
      "Ġcame": 5081,
      "Ġneighb": 5082,
      "_ac": 5083,
      "gex": 5084,
      "ĠPython": 5085,
      "olume": 5086,
      "Ġyet": 5087,
      "ĠĠĠĠĠĠĠĠĠĠĠĠĠĠĠĠĠĠĠĠĠĠĠĠĠĠĠĠĠĠĠĠĠĠĠĠĠĠĠ": 5088,
      "Ġjoin": 5089,
      "unit": 5090,
      "eb": 5091,
      "Search": 5092,
      "Ġproperty": 5093,
      "Return": 5094,
      "Ġensure": 5095,
      "where": 5096,
      "ixel": 5097,
      "iven": 5098,
      "ngth": 5099,
      "Ġclimate": 5100,
      ".preprocessing": 5101,
      "ĠMay": 5102,
      "=int": 5103,
      "Ġthough": 5104,
      "ä»": 5105,
      "_init": 5106,
      "_method": 5107,
      "scal": 5108,
      "Ġempty": 5109,
      "aged": 5110,
      "Check": 5111,
      "math": 5112,
      "Ġtheta": 5113,
      "(device": 5114,
      "amera": 5115,
      "Ġevidence": 5116,
      "Ġutils": 5117,
      "Ġrespons": 5118,
      "abilities": 5119,
      "idf": 5120,
      "Ġmu": 5121,
      "Ġexperiment": 5122,
      "eff": 5123,
      "ws": 5124,
      "Ġbeta": 5125,
      "imer": 5126,
      "Ġdeveloped": 5127,
      ",n": 5128,
      "Ġservices": 5129,
      ".start": 5130,
      "ĠDec": 5131,
      "dist": 5132,
      "actory": 5133,
      ".lower": 5134,
      "Ġdatabase": 5135,
      "Ġshuffle": 5136,
      "=='": 5137,
      "Ġcomput": 5138,
      "ULT": 5139,
      "Ġnegative": 5140,
      "ĠTODO": 5141,
      "Ġstream": 5142,
      "(j": 5143,
      "wer": 5144,
      "ĠSouth": 5145,
      "At": 5146,
      "nist": 5147,
      "%%": 5148,
      "mine": 5149,
      "Ġmedical": 5150,
      "Ġdistributed": 5151,
      "Ġsun": 5152,
      "EMA": 5153,
      "ĠWest": 5154,
      "ĉreturn": 5155,
      "(sub": 5156,
      "Ġbusiness": 5157,
      "Get": 5158,
      "Ġproper": 5159,
      "_conf": 5160,
      "length": 5161,
      ".conv": 5162,
      "Ġfund": 5163,
      "Ġthread": 5164,
      "Ġnational": 5165,
      "enerate": 5166,
      "home": 5167,
      "Ġprovides": 5168,
      ".pop": 5169,
      "Ġupon": 5170,
      "App": 5171,
      ".output": 5172,
      "('--": 5173,
      "Ġcred": 5174,
      "Ġ{:.": 5175,
      "Ġapproach": 5176,
      "fect": 5177,
      "Ġbbox": 5178,
      ")(": 5179,
      "_message": 5180,
      "hap": 5181,
      "change": 5182,
      "Ġperformance": 5183,
      "ley": 5184,
      "Ġpie": 5185,
      "*np": 5186,
      "ape": 5187,
      "=data": 5188,
      "Ġfactors": 5189,
      "ummy": 5190,
      "-w": 5191,
      "_height": 5192,
      "member": 5193,
      "Ġapi": 5194,
      "_layers": 5195,
      ")',": 5196,
      "Ġskin": 5197,
      "valuate": 5198,
      "ĠTHE": 5199,
      "Ġinstall": 5200,
      "hib": 5201,
      "rig": 5202,
      "qa": 5203,
      "Ġitself": 5204,
      "_word": 5205,
      ".rc": 5206,
      ".display": 5207,
      "Ġgreen": 5208,
      "Ġdifference": 5209,
      ".nan": 5210,
      "ney": 5211,
      "Ġuses": 5212,
      ".W": 5213,
      "Ġmag": 5214,
      "Ġlos": 5215,
      "ĠRead": 5216,
      "Ġ(-": 5217,
      "_part": 5218,
      "Ġconcept": 5219,
      "ulations": 5220,
      "Ġvert": 5221,
      "([\"": 5222,
      "Run": 5223,
      "ĠAg": 5224,
      "_cal": 5225,
      ".exists": 5226,
      ");Ċ": 5227,
      "URL": 5228,
      "ternal": 5229,
      ".\")Ċ": 5230,
      "training": 5231,
      "Ġcontact": 5232,
      "ĠRun": 5233,
      "cesses": 5234,
      "ivil": 5235,
      "jection": 5236,
      "stry": 5237,
      "orizont": 5238,
      ".sh": 5239,
      "ltk": 5240,
      "Ġmonths": 5241,
      "ĠAmerica": 5242,
      "Ġcat": 5243,
      "Ġsection": 5244,
      "Ġreview": 5245,
      "And": 5246,
      "_ratio": 5247,
      "Ġbuilt": 5248,
      "uses": 5249,
      "\":\"": 5250,
      "Ġds": 5251,
      ".all": 5252,
      "Ġrepe": 5253,
      "aa": 5254,
      "Ġpredicted": 5255,
      "validation": 5256,
      "Ġselected": 5257,
      "Ġrad": 5258,
      "Ġhours": 5259,
      "ĠHT": 5260,
      "ART": 5261,
      "Ġannot": 5262,
      "illed": 5263,
      "ixt": 5264,
      "Ġinfe": 5265,
      "[n": 5266,
      "olve": 5267,
      "Ġcorrespon": 5268,
      "120": 5269,
      "del": 5270,
      "_box": 5271,
      "(set": 5272,
      ");": 5273,
      "ĠCar": 5274,
      "gt": 5275,
      "Ġgreater": 5276,
      "ĠShe": 5277,
      "Forest": 5278,
      "uman": 5279,
      "Ġrespect": 5280,
      ",x": 5281,
      "Ġspecified": 5282,
      "illi": 5283,
      "Ġsaf": 5284,
      "ASS": 5285,
      "åĲ": 5286,
      ".score": 5287,
      "_utils": 5288,
      "Ġeffective": 5289,
      "Ġmicro": 5290,
      "****************": 5291,
      "irm": 5292,
      "Ġthemselves": 5293,
      "cd": 5294,
      "relation": 5295,
      "(line": 5296,
      "Ġdepth": 5297,
      "epochs": 5298,
      "(user": 5299,
      "ĠDict": 5300,
      "orr": 5301,
      "_pri": 5302,
      "Ġconnection": 5303,
      "bt": 5304,
      ".state": 5305,
      "Ġliter": 5306,
      ".abs": 5307,
      "ropri": 5308,
      "ike": 5309,
      "0001": 5310,
      "ride": 5311,
      "Ġnoise": 5312,
      "Ġmaterials": 5313,
      ".optim": 5314,
      "ĠOut": 5315,
      "etic": 5316,
      "colors": 5317,
      "IF": 5318,
      "Ġcomes": 5319,
      "Ġdetermin": 5320,
      "Ġ}ĊĊ": 5321,
      "asic": 5322,
      "ridge": 5323,
      "Ġparents": 5324,
      "Ġaff": 5325,
      "room": 5326,
      "_default": 5327,
      ".randint": 5328,
      "python": 5329,
      "OW": 5330,
      "lec": 5331,
      "rong": 5332,
      "åħ": 5333,
      "ĠClass": 5334,
      "ully": 5335,
      "hist": 5336,
      "itation": 5337,
      "çĶ": 5338,
      "lope": 5339,
      "Ġprogress": 5340,
      "Ġgas": 5341,
      "gress": 5342,
      "heta": 5343,
      "oll": 5344,
      ",c": 5345,
      "_db": 5346,
      "_act": 5347,
      "Ġproduce": 5348,
      "_dec": 5349,
      ".merge": 5350,
      "GG": 5351,
      "long": 5352,
      "Rec": 5353,
      "ament": 5354,
      "duc": 5355,
      "local": 5356,
      "Ġ\"<": 5357,
      "igen": 5358,
      "ief": 5359,
      "Ġpublished": 5360,
      "}')Ċ": 5361,
      "Ġopp": 5362,
      "ĠAPI": 5363,
      "Ġvolume": 5364,
      "efore": 5365,
      "LA": 5366,
      "Ġpractice": 5367,
      ".Linear": 5368,
      "Ġbasic": 5369,
      "_back": 5370,
      "Ġdefined": 5371,
      "_ref": 5372,
      "ino": 5373,
      "eth": 5374,
      "Ġunits": 5375,
      "Ġtakes": 5376,
      "feature": 5377,
      "Ġincreased": 5378,
      "Ġvisit": 5379,
      "Ġprincip": 5380,
      "Tensor": 5381,
      ".core": 5382,
      "_keys": 5383,
      "Ġbr": 5384,
      "insert": 5385,
      "ãĢ": 5386,
      "_scale": 5387,
      "Ġconfusion": 5388,
      "From": 5389,
      "xx": 5390,
      "Ġfire": 5391,
      "(label": 5392,
      "vg": 5393,
      "Ġutil": 5394,
      "opyright": 5395,
      "xim": 5396,
      "Ġunderstanding": 5397,
      "Ġ-*-": 5398,
      "_squared": 5399,
      "Ġ_,": 5400,
      "Ġdownload": 5401,
      "Ġcoding": 5402,
      "}\\": 5403,
      "ĠInput": 5404,
      "New": 5405,
      "Ġintrodu": 5406,
      "(target": 5407,
      "-m": 5408,
      "part": 5409,
      "_final": 5410,
      "Ġanimals": 5411,
      "=tf": 5412,
      "Ġbio": 5413,
      "_link": 5414,
      "seline": 5415,
      "ras": 5416,
      "Ġmoney": 5417,
      "lastic": 5418,
      "Ġreference": 5419,
      "Ġ'%": 5420,
      "game": 5421,
      "ĠStr": 5422,
      "âĢ¦": 5423,
      "(Y": 5424,
      ".label": 5425,
      "features": 5426,
      "\\čĊ": 5427,
      "_import": 5428,
      "ancy": 5429,
      ".inter": 5430,
      "]],": 5431,
      "ios": 5432,
      "Ġappear": 5433,
      "(config": 5434,
      "pack": 5435,
      "ĠMar": 5436,
      "_task": 5437,
      "Ġhealthy": 5438,
      "Ġmanagement": 5439,
      "Ġnature": 5440,
      "Ġexpect": 5441,
      "Ñĭ": 5442,
      "Ġexamples": 5443,
      "Ġessential": 5444,
      "ĠYork": 5445,
      "([Ċ": 5446,
      "Ġcompany": 5447,
      "aml": 5448,
      "Year": 5449,
      "ariance": 5450,
      ".remove": 5451,
      "inalg": 5452,
      "Ñı": 5453,
      "ĠPe": 5454,
      "mote": 5455,
      "Ġfru": 5456,
      "Ġspeed": 5457,
      "Ġidea": 5458,
      "RAN": 5459,
      "Ġexplo": 5460,
      "Ġexerc": 5461,
      "Ġopport": 5462,
      "Ġserial": 5463,
      "Ġforms": 5464,
      ".back": 5465,
      "Valid": 5466,
      "_context": 5467,
      "Array": 5468,
      "-based": 5469,
      "[x": 5470,
      "Ġability": 5471,
      "Ġresearchers": 5472,
      ".error": 5473,
      "2011": 5474,
      "atterns": 5475,
      "Ġcm": 5476,
      "Ġadmin": 5477,
      "height": 5478,
      "Ġtook": 5479,
      "fort": 5480,
      "Ġnorth": 5481,
      "_datetime": 5482,
      "_source": 5483,
      "(L": 5484,
      "Sp": 5485,
      "(response": 5486,
      "Group": 5487,
      "dr": 5488,
      "Ġliving": 5489,
      "columns": 5490,
      "Ġerr": 5491,
      "Ġcomputer": 5492,
      "Ġissue": 5493,
      "ulated": 5494,
      "atives": 5495,
      "Ġrelig": 5496,
      "Ġadditional": 5497,
      "lam": 5498,
      "Ġrule": 5499,
      "ĠLinear": 5500,
      "Rep": 5501,
      "mpl": 5502,
      "ĠPar": 5503,
      "Ġsentence": 5504,
      "[s": 5505,
      "orizontal": 5506,
      "_mod": 5507,
      "Ġexperi": 5508,
      "XT": 5509,
      "Ġsess": 5510,
      "Ġcounter": 5511,
      "Ġcollections": 5512,
      "')čĊ": 5513,
      "Ġcamp": 5514,
      "SP": 5515,
      "/m": 5516,
      "itter": 5517,
      "00000000": 5518,
      "ORD": 5519,
      "rea": 5520,
      "SA": 5521,
      "Ġpan": 5522,
      "Ġlonger": 5523,
      "_avg": 5524,
      "Ġoption": 5525,
      "types": 5526,
      ".client": 5527,
      "Ġ----------": 5528,
      "Ġshows": 5529,
      "_over": 5530,
      "Ġur": 5531,
      "Ġcategory": 5532,
      "zip": 5533,
      "Ġupper": 5534,
      "stitute": 5535,
      "ROM": 5536,
      "Ġbin": 5537,
      ".input": 5538,
      "graph": 5539,
      "aches": 5540,
      "Ġpolitical": 5541,
      "Min": 5542,
      "Ġactions": 5543,
      "Base": 5544,
      "icon": 5545,
      "usr": 5546,
      "yes": 5547,
      "Ġrequires": 5548,
      "Ġkeys": 5549,
      "MM": 5550,
      "Ġsense": 5551,
      "180": 5552,
      "trained": 5553,
      "request": 5554,
      "(index": 5555,
      "tract": 5556,
      "Ġalmost": 5557,
      ":%": 5558,
      "YPE": 5559,
      "Loss": 5560,
      ".Conv": 5561,
      "_is": 5562,
      "riterion": 5563,
      "Ġthing": 5564,
      "Ġincluded": 5565,
      "\")čĊ": 5566,
      "Ġmaintain": 5567,
      "Normal": 5568,
      "Ġexam": 5569,
      "create": 5570,
      "Ġ'__": 5571,
      "Ġtaking": 5572,
      ".new": 5573,
      "term": 5574,
      "\"]ĊĊ": 5575,
      "Ġdesc": 5576,
      "_full": 5577,
      "ĠĠĠĠĠĠĠĠĠĠĠĠĠĠĠĠĠĠĠĠĠĠĠĠĠĠĠĠĠĠĠĠĠ": 5578,
      ".argmax": 5579,
      "orse": 5580,
      "Ġdaily": 5581,
      "_arr": 5582,
      "Ġdelta": 5583,
      "_api": 5584,
      "Ġpopular": 5585,
      "'\\": 5586,
      "pts": 5587,
      "~~~~": 5588,
      "igure": 5589,
      "orders": 5590,
      "(val": 5591,
      "vec": 5592,
      ".color": 5593,
      ".astype": 5594,
      "tection": 5595,
      ".Series": 5596,
      "PU": 5597,
      "upper": 5598,
      "_epochs": 5599,
      "Ġapplication": 5600,
      "Ġ'--": 5601,
      "clf": 5602,
      "Ġbias": 5603,
      "inder": 5604,
      ".strip": 5605,
      ".execute": 5606,
      "ĠUser": 5607,
      "vention": 5608,
      "QU": 5609,
      "ads": 5610,
      "Ġerrors": 5611,
      "isode": 5612,
      "_event": 5613,
      "ĠVal": 5614,
      "ners": 5615,
      "oph": 5616,
      "ĠKey": 5617,
      "den": 5618,
      "Ġplayer": 5619,
      "Ġcollection": 5620,
      ".image": 5621,
      "aster": 5622,
      ".H": 5623,
      "ĠOb": 5624,
      "omial": 5625,
      ".sample": 5626,
      "LECT": 5627,
      "________": 5628,
      "mooth": 5629,
      "_tag": 5630,
      "rome": 5631,
      "ĠMy": 5632,
      "Ġwritten": 5633,
      "ĠUs": 5634,
      "ÃŃ": 5635,
      "_content": 5636,
      "Ġresp": 5637,
      ".seed": 5638,
      "Ġeasy": 5639,
      "Ġmodern": 5640,
      "heet": 5641,
      "Ġoil": 5642,
      "Predict": 5643,
      "Ġsal": 5644,
      "apy": 5645,
      "alette": 5646,
      ".unique": 5647,
      "ĠAfter": 5648,
      "description": 5649,
      "Ġsources": 5650,
      "Ġagent": 5651,
      "ife": 5652,
      "Ġindividuals": 5653,
      ".send": 5654,
      "Ġden": 5655,
      "Ġeconomic": 5656,
      "Sh": 5657,
      "white": 5658,
      "green": 5659,
      "(ax": 5660,
      "cale": 5661,
      "_not": 5662,
      "Ġshown": 5663,
      "ĠNOT": 5664,
      "Ġinside": 5665,
      "Ġdri": 5666,
      "Ġarguments": 5667,
      ")**": 5668,
      "Str": 5669,
      ":,": 5670,
      "Ġproperties": 5671,
      "Ġsend": 5672,
      "dule": 5673,
      "abit": 5674,
      "ĠNumber": 5675,
      "ĠAny": 5676,
      "atings": 5677,
      "Age": 5678,
      "Ġonline": 5679,
      "Ġincreasing": 5680,
      "price": 5681,
      "video": 5682,
      "Ġ[(": 5683,
      "ĠEarth": 5684,
      "Label": 5685,
      "Ġmetric": 5686,
      "ĠInter": 5687,
      "Ġsex": 5688,
      "ainer": 5689,
      "_post": 5690,
      "Ġargument": 5691,
      "Ġmedia": 5692,
      "Ġspread": 5693,
      "gray": 5694,
      "vas": 5695,
      "ignore": 5696,
      "101": 5697,
      "mu": 5698,
      "Ġorigin": 5699,
      "_DE": 5700,
      "Ġaspect": 5701,
      "Ġheaders": 5702,
      "DB": 5703,
      "sec": 5704,
      "Ġdirection": 5705,
      "ĠResearch": 5706,
      "Temp": 5707,
      "Ġignore": 5708,
      "Ġsel": 5709,
      "_parameters": 5710,
      "(loss": 5711,
      "Ġcard": 5712,
      "Ġ::": 5713,
      "Ġdiet": 5714,
      "Loader": 5715,
      "']).": 5716,
      "build": 5717,
      "vider": 5718,
      "_generator": 5719,
      "Ġbad": 5720,
      "ĉdef": 5721,
      "Ġoffset": 5722,
      "Ġincludes": 5723,
      "sys": 5724,
      "Ġindices": 5725,
      "IB": 5726,
      ".sp": 5727,
      "mos": 5728,
      "_axis": 5729,
      "(pred": 5730,
      "dim": 5731,
      "Ġattemp": 5732,
      "yl": 5733,
      "Ġever": 5734,
      "final": 5735,
      "location": 5736,
      "Ġsoil": 5737,
      "Ġcalcul": 5738,
      "Ġmetadata": 5739,
      "Ġfrequ": 5740,
      "crimin": 5741,
      "Ġpersonal": 5742,
      "Trans": 5743,
      "Ġdiagn": 5744,
      "Prop": 5745,
      "sim": 5746,
      "Ġpassed": 5747,
      "oes": 5748,
      "Ġcommit": 5749,
      "So": 5750,
      "aging": 5751,
      "Ġfolder": 5752,
      "Ġer": 5753,
      "lask": 5754,
      "pache": 5755,
      "abetes": 5756,
      "(temp": 5757,
      "_SE": 5758,
      "(True": 5759,
      "Ġidentify": 5760,
      "().__": 5761,
      "][\"": 5762,
      "Ġdetermine": 5763,
      "_op": 5764,
      "Ġcapt": 5765,
      "ĠĠĠĠĠĠĠĠĠĠĠĠĠĠĠĠĊ": 5766,
      "td": 5767,
      "mplete": 5768,
      "win": 5769,
      "Ġdefine": 5770,
      "Ġ%.": 5771,
      "Ġ:,": 5772,
      "Ġnoqa": 5773,
      "Ġcli": 5774,
      "Ġdatasets": 5775,
      ".app": 5776,
      "(shape": 5777,
      "cluster": 5778,
      "ĠJohn": 5779,
      "Ġzero": 5780,
      "ERE": 5781,
      "ufact": 5782,
      "Ġoutside": 5783,
      "images": 5784,
      "ĠLoad": 5785,
      "opulation": 5786,
      "_cross": 5787,
      "Parser": 5788,
      "ustain": 5789,
      "Ġdoing": 5790,
      "lthough": 5791,
      "vs": 5792,
      "Ġpattern": 5793,
      "Ð²": 5794,
      "=y": 5795,
      "Ġasc": 5796,
      "spec": 5797,
      "agent": 5798,
      "Ġctx": 5799,
      ".linalg": 5800,
      "Ġemail": 5801,
      "Ġoptional": 5802,
      "(torch": 5803,
      "Ġcombin": 5804,
      "_rows": 5805,
      "Ġmid": 5806,
      "Ġtools": 5807,
      "Ġtyping": 5808,
      "EMAIL": 5809,
      "Ġseq": 5810,
      "_(": 5811,
      "roy": 5812,
      "]),Ċ": 5813,
      "Ġphi": 5814,
      "(R": 5815,
      "_sc": 5816,
      "Ġbottom": 5817,
      "reated": 5818,
      "Ġmaximum": 5819,
      "']=": 5820,
      "message": 5821,
      "]-": 5822,
      "roller": 5823,
      "Ġsep": 5824,
      "Ġsql": 5825,
      "_space": 5826,
      "Ġdeli": 5827,
      ".summary": 5828,
      "ĠFirst": 5829,
      "ORT": 5830,
      "Ġcrop": 5831,
      "'re": 5832,
      "Ġthroughout": 5833,
      "Ġwait": 5834,
      "ĠDE": 5835,
      ".datetime": 5836,
      "_update": 5837,
      "Ġstress": 5838,
      "ronic": 5839,
      "edge": 5840,
      "zy": 5841,
      "]))": 5842,
      "_vis": 5843,
      "(predict": 5844,
      "stances": 5845,
      "Ġchemical": 5846,
      "iency": 5847,
      "Ġpatient": 5848,
      "Ġ):Ċ": 5849,
      "token": 5850,
      "Output": 5851,
      "_summary": 5852,
      "entropy": 5853,
      "ĠĠĠĠĠĠĠĠĠĠĠĠĠĠĠĠĠĠĠĠĠĠĠĠĠĠĠĠĠĠĠĠĠĠ": 5854,
      "mains": 5855,
      "Ġclf": 5856,
      "ĠUnion": 5857,
      "Ġdev": 5858,
      "indows": 5859,
      "losses": 5860,
      "amily": 5861,
      "ĠCor": 5862,
      "istration": 5863,
      "lands": 5864,
      "Ġmatter": 5865,
      "Ġscri": 5866,
      "tail": 5867,
      "attle": 5868,
      "Encoder": 5869,
      "Ġexisting": 5870,
      "Ġconduct": 5871,
      "means": 5872,
      "Ġautom": 5873,
      "icip": 5874,
      "arger": 5875,
      "Ġconsist": 5876,
      "iful": 5877,
      "#!": 5878,
      "rest": 5879,
      "æĸ": 5880,
      "Ġdetails": 5881,
      "NS": 5882,
      "))ĊĊĊ": 5883,
      "(False": 5884,
      "_only": 5885,
      "Ġbegan": 5886,
      "ĠNote": 5887,
      "Widget": 5888,
      "ousing": 5889,
      "Ġsimply": 5890,
      "Ġgetting": 5891,
      "Ġdeal": 5892,
      "_search": 5893,
      "Ġgot": 5894,
      "sect": 5895,
      "_IN": 5896,
      "Ġmeaning": 5897,
      "Ġviol": 5898,
      ".linear": 5899,
      "vector": 5900,
      "')ĊĊĊ": 5901,
      "Ġwin": 5902,
      "except": 5903,
      "Ġhandle": 5904,
      "è¿": 5905,
      "Ġfocus": 5906,
      "hol": 5907,
      "Ġcallback": 5908,
      "gent": 5909,
      "Map": 5910,
      "ASE": 5911,
      "è¯": 5912,
      "(labels": 5913,
      "Ġreturned": 5914,
      "ĠGu": 5915,
      ".concatenate": 5916,
      "Ġ[],": 5917,
      "ixture": 5918,
      "MENT": 5919,
      "Ġmedic": 5920,
      "Layout": 5921,
      ".device": 5922,
      "å¤": 5923,
      "allel": 5924,
      "Ġsil": 5925,
      "save": 5926,
      "enu": 5927,
      "_tokens": 5928,
      "ĠTrans": 5929,
      "ĠPart": 5930,
      "parser": 5931,
      "ames": 5932,
      "recision": 5933,
      "RL": 5934,
      "icate": 5935,
      "SON": 5936,
      "=str": 5937,
      "cial": 5938,
      "Ġpsy": 5939,
      "ĠSub": 5940,
      ".target": 5941,
      "(title": 5942,
      "ores": 5943,
      "ĠQt": 5944,
      "Ġque": 5945,
      "Ġindustry": 5946,
      "\\t": 5947,
      "pytest": 5948,
      ".io": 5949,
      "ĠFran": 5950,
      "ucket": 5951,
      "Code": 5952,
      "oses": 5953,
      "ember": 5954,
      "Ġreverse": 5955,
      ".history": 5956,
      "enced": 5957,
      "!!": 5958,
      "Ġhyp": 5959,
      "Ġappropri": 5960,
      "ĠTe": 5961,
      "_hat": 5962,
      "\"][": 5963,
      "radient": 5964,
      "hing": 5965,
      "_tree": 5966,
      "inct": 5967,
      "country": 5968,
      "_conv": 5969,
      "enses": 5970,
      "]/": 5971,
      "Ġallows": 5972,
      "Ġattr": 5973,
      "-h": 5974,
      "Ġpytest": 5975,
      "Ġfront": 5976,
      "ĠWork": 5977,
      "ography": 5978,
      "ç»": 5979,
      "Ġpulumi": 5980,
      "Ġcauses": 5981,
      "Ġbytes": 5982,
      "ĠCent": 5983,
      "erve": 5984,
      "month": 5985,
      "this": 5986,
      "[int": 5987,
      "peak": 5988,
      "rench": 5989,
      "ĠMake": 5990,
      "Ġsociety": 5991,
      "zone": 5992,
      "Ed": 5993,
      ".normal": 5994,
      ".fill": 5995,
      "Ġemot": 5996,
      "cp": 5997,
      "Ġche": 5998,
      "tra": 5999,
      "Ġvocab": 6000,
      "')[": 6001,
      "Ġcreating": 6002,
      "NE": 6003,
      "ä½": 6004,
      "Att": 6005,
      "DD": 6006,
      "Ġexpress": 6007,
      ".environ": 6008,
      "Ġintern": 6009,
      "quant": 6010,
      "Ġconst": 6011,
      "akes": 6012,
      "irs": 6013,
      "(node": 6014,
      "âĸ": 6015,
      "weets": 6016,
      "Ġexact": 6017,
      "Ġê": 6018,
      "(all": 6019,
      "})ĊĊ": 6020,
      "/{": 6021,
      "acters": 6022,
      "ĠDataFrame": 6023,
      "Ġhot": 6024,
      "ĠYour": 6025,
      "ony": 6026,
      "Ġuseful": 6027,
      "loor": 6028,
      "Ġpoly": 6029,
      ".feature": 6030,
      "Ġmechan": 6031,
      "va": 6032,
      ".Char": 6033,
      "eric": 6034,
      "Ġtemplate": 6035,
      "Ġindepend": 6036,
      "Ġdirectly": 6037,
      "(\"/": 6038,
      "por": 6039,
      "Ġcollect": 6040,
      "IGHT": 6041,
      "oday": 6042,
      "Ġcaused": 6043,
      "PUT": 6044,
      "device": 6045,
      "master": 6046,
      "lements": 6047,
      "Ġearth": 6048,
      "lict": 6049,
      "_factor": 6050,
      "-S": 6051,
      "_template": 6052,
      "(by": 6053,
      "(id": 6054,
      "ĠWhile": 6055,
      "(Q": 6056,
      "But": 6057,
      "_subplot": 6058,
      "Ġstrength": 6059,
      ".ax": 6060,
      "Ġenvironmental": 6061,
      "Ind": 6062,
      "Ġtokens": 6063,
      "Ġoperation": 6064,
      "ynamic": 6065,
      "Ġslow": 6066,
      "Ġgenerated": 6067,
      "ĠSchool": 6068,
      "/f": 6069,
      "Ġassess": 6070,
      "dro": 6071,
      "(min": 6072,
      "UC": 6073,
      "Ġpict": 6074,
      "_threshold": 6075,
      "ITY": 6076,
      "_position": 6077,
      "Ġconstruct": 6078,
      "Ġbenefits": 6079,
      "_view": 6080,
      "']].": 6081,
      "body": 6082,
      "Ġconstant": 6083,
      "rapper": 6084,
      "Hel": 6085,
      "cf": 6086,
      "iting": 6087,
      ".')Ċ": 6088,
      "ĠEd": 6089,
      "_history": 6090,
      "lant": 6091,
      "mitted": 6092,
      "Ġreward": 6093,
      "ara": 6094,
      "pid": 6095,
      "/bin": 6096,
      "Ġforest": 6097,
      "nes": 6098,
      "_action": 6099,
      "anies": 6100,
      "(class": 6101,
      "ancial": 6102,
      "_cost": 6103,
      "ĠJu": 6104,
      "same": 6105,
      "section": 6106,
      "Ġmis": 6107,
      "utation": 6108,
      "amount": 6109,
      "Ġdesigned": 6110,
      "cient": 6111,
      "Ġcomponent": 6112,
      "bi": 6113,
      "Ġlives": 6114,
      "Ġcomponents": 6115,
      "Ġspect": 6116,
      "Ġmusic": 6117,
      "ecution": 6118,
      "csv": 6119,
      "_hist": 6120,
      "Ġdem": 6121,
      "liance": 6122,
      "Ġlinestyle": 6123,
      "ĠDis": 6124,
      "600": 6125,
      "sa": 6126,
      "anger": 6127,
      "Ġwarnings": 6128,
      "_auc": 6129,
      "Ġtax": 6130,
      "Ġmoment": 6131,
      "-e": 6132,
      "umption": 6133,
      "product": 6134,
      "_cell": 6135,
      "-to": 6136,
      "/g": 6137,
      "Ġled": 6138,
      "uk": 6139,
      "ctx": 6140,
      "rum": 6141,
      "Ġast": 6142,
      "txt": 6143,
      "anning": 6144,
      "Training": 6145,
      "Ġscreen": 6146,
      ".Se": 6147,
      "Ġfarm": 6148,
      "while": 6149,
      ":]Ċ": 6150,
      "mode": 6151,
      "Ġbinary": 6152,
      "lif": 6153,
      "Ġpair": 6154,
      "Ġgain": 6155,
      "cean": 6156,
      "bsite": 6157,
      "ĠÂ": 6158,
      "----------------------------------------------------------------": 6159,
      "PL": 6160,
      "ĠAtt": 6161,
      "rast": 6162,
      ".tight": 6163,
      "Ġagg": 6164,
      "Ġdimension": 6165,
      "Ġhelps": 6166,
      "dis": 6167,
      "()))Ċ": 6168,
      "Ġstage": 6169,
      "Ð´": 6170,
      "Ġwind": 6171,
      "Ġstack": 6172,
      "_numpy": 6173,
      "onal": 6174,
      "Token": 6175,
      "Table": 6176,
      ".connect": 6177,
      "Ġdamage": 6178,
      "]))ĊĊ": 6179,
      "Ġschools": 6180,
      "maz": 6181,
      "filename": 6182,
      ".check": 6183,
      "cription": 6184,
      "Ġdegree": 6185,
      "urg": 6186,
      ".CharField": 6187,
      "Ġminutes": 6188,
      "OM": 6189,
      "_prefix": 6190,
      ".api": 6191,
      "Ġsetup": 6192,
      "Ġemer": 6193,
      "Ġutf": 6194,
      "ĠRed": 6195,
      "strict": 6196,
      "autiful": 6197,
      "igmoid": 6198,
      "Vector": 6199,
      "2009": 6200,
      "Regressor": 6201,
      "close": 6202,
      "_page": 6203,
      "uge": 6204,
      "roid": 6205,
      "ĠPrint": 6206,
      "_vec": 6207,
      "auth": 6208,
      "Ġcover": 6209,
      "(batch": 6210,
      "oard": 6211,
      "ĠBritish": 6212,
      "page": 6213,
      "mock": 6214,
      ".sleep": 6215,
      "Ġsafe": 6216,
      "itect": 6217,
      "Ġseconds": 6218,
      "Ġfrequency": 6219,
      "Ġlack": 6220,
      "parent": 6221,
      "Ġvia": 6222,
      "ricult": 6223,
      "allow": 6224,
      "func": 6225,
      "Ġ----------Ċ": 6226,
      "Ġtargets": 6227,
      "Ġaltern": 6228,
      "ustral": 6229,
      "äº": 6230,
      ")]ĊĊ": 6231,
      "olver": 6232,
      "Ġthird": 6233,
      "Ġreported": 6234,
      "ĠJew": 6235,
      "GD": 6236,
      "Ġauto": 6237,
      "Start": 6238,
      "Ġbring": 6239,
      "lying": 6240,
      ".item": 6241,
      "staticmethod": 6242,
      "Ġreceived": 6243,
      "ĠHere": 6244,
      ")])Ċ": 6245,
      "Ġstarted": 6246,
      "ãģ®": 6247,
      "]=": 6248,
      "']]Ċ": 6249,
      "Ġbehavior": 6250,
      "Ġgoal": 6251,
      "iris": 6252,
      "lour": 6253,
      "Ġcore": 6254,
      "Client": 6255,
      "Ġeval": 6256,
      "Ġsummary": 6257,
      "kg": 6258,
      "(item": 6259,
      "Ġgamma": 6260,
      "2008": 6261,
      "250": 6262,
      ")],": 6263,
      "Ġchoice": 6264,
      "(cls": 6265,
      "(count": 6266,
      "Ġson": 6267,
      "Ġconcern": 6268,
      "Ġdecision": 6269,
      "IND": 6270,
      "Ġbacter": 6271,
      "izations": 6272,
      "issue": 6273,
      "Ġtopic": 6274,
      "Ġps": 6275,
      "Ġreach": 6276,
      "Ġæ": 6277,
      "ĠCopyright": 6278,
      "Ġpara": 6279,
      "olid": 6280,
      "empty": 6281,
      ".rename": 6282,
      "coming": 6283,
      "ham": 6284,
      "ĠAND": 6285,
      "ĠJap": 6286,
      "_feat": 6287,
      "('-": 6288,
      "Ġev": 6289,
      "ao": 6290,
      "initialize": 6291,
      "Ġprecision": 6292,
      "ederal": 6293,
      "ighest": 6294,
      "/v": 6295,
      "Ġther": 6296,
      "Cal": 6297,
      "Ġeat": 6298,
      "Ġthreat": 6299,
      "Ġsometimes": 6300,
      "})": 6301,
      "_process": 6302,
      ".request": 6303,
      "_estimators": 6304,
      "EC": 6305,
      "ALL": 6306,
      "oking": 6307,
      "conds": 6308,
      "Ġallowed": 6309,
      "Ġones": 6310,
      "Result": 6311,
      "Ġvariety": 6312,
      "asons": 6313,
      "QL": 6314,
      "lon": 6315,
      "_tf": 6316,
      "Ġmovement": 6317,
      ".xticks": 6318,
      "_freq": 6319,
      "geo": 6320,
      "Ġord": 6321,
      "_lat": 6322,
      "Ġflag": 6323,
      "Ġtick": 6324,
      "olic": 6325,
      "]čĊ": 6326,
      "_port": 6327,
      "(**": 6328,
      "Ġsetting": 6329,
      ".ndarray": 6330,
      "Ġoperations": 6331,
      "bb": 6332,
      "Ġprograms": 6333,
      "Ġcompet": 6334,
      "_return": 6335,
      "lick": 6336,
      "Ġnltk": 6337,
      "erts": 6338,
      "Ġproduced": 6339,
      "+\"": 6340,
      "block": 6341,
      "style": 6342,
      "chor": 6343,
      "Ġeth": 6344,
      "(word": 6345,
      "_dims": 6346,
      "))čĊ": 6347,
      "warnings": 6348,
      "future": 6349,
      "Ġpoor": 6350,
      ".sin": 6351,
      "edia": 6352,
      "_equal": 6353,
      "lem": 6354,
      "_options": 6355,
      "Accuracy": 6356,
      "Ġdemon": 6357,
      "Pre": 6358,
      "ĠST": 6359,
      "iag": 6360,
      "Ġevaluate": 6361,
      "_hidden": 6362,
      "_lines": 6363,
      "_tra": 6364,
      "Ġsecurity": 6365,
      "keep": 6366,
      "Ġlooking": 6367,
      "ires": 6368,
      "_red": 6369,
      "onom": 6370,
      "Ġcomment": 6371,
      "ĠPy": 6372,
      "ticklabels": 6373,
      "tab": 6374,
      "224": 6375,
      "_root": 6376,
      "_def": 6377,
      "levant": 6378,
      "Ġcri": 6379,
      "Ġchoose": 6380,
      "github": 6381,
      ".Dense": 6382,
      "cpu": 6383,
      "Ġattribute": 6384,
      "_series": 6385,
      "_scaled": 6386,
      "etween": 6387,
      "_states": 6388,
      "isticRegression": 6389,
      "Ġboard": 6390,
      "Ġsound": 6391,
      "Ġpi": 6392,
      ".best": 6393,
      "Ġgene": 6394,
      "ĠRandomForest": 6395,
      "Ġrot": 6396,
      ".tensor": 6397,
      ".type": 6398,
      "Ġ-=": 6399,
      "author": 6400,
      "ABLE": 6401,
      "atial": 6402,
      "stream": 6403,
      "Ġadapt": 6404,
      "Ġbelieve": 6405,
      "Ġbackground": 6406,
      "category": 6407,
      "uri": 6408,
      "Price": 6409,
      "cap": 6410,
      "Ġbasis": 6411,
      "ĠHis": 6412,
      "Ġ?": 6413,
      "Ġlarger": 6414,
      "avy": 6415,
      "_.": 6416,
      "SD": 6417,
      "ĠInitial": 6418,
      "Ġcarbon": 6419,
      "Ġprobably": 6420,
      "('./": 6421,
      "Ġtransforms": 6422,
      "ĠSystem": 6423,
      ".rcParams": 6424,
      "ĠDense": 6425,
      "isions": 6426,
      ".view": 6427,
      "_im": 6428,
      "Ġseason": 6429,
      "_vars": 6430,
      ".select": 6431,
      "Ġregard": 6432,
      "aseline": 6433,
      "ĠBase": 6434,
      ".axis": 6435,
      "ilitary": 6436,
      "ste": 6437,
      "Met": 6438,
      "dec": 6439,
      "Ġgran": 6440,
      "ĠUp": 6441,
      "ĠKing": 6442,
      ".step": 6443,
      "_element": 6444,
      "locity": 6445,
      "Ġprefix": 6446,
      "Ġdrink": 6447,
      "ĠScience": 6448,
      "_predictions": 6449,
      "={}": 6450,
      "Ġmember": 6451,
      "Status": 6452,
      "PC": 6453,
      "/L": 6454,
      "Ġdecre": 6455,
      "Ġexists": 6456,
      "ixels": 6457,
      "EM": 6458,
      "Ġculture": 6459,
      "Ġfav": 6460,
      "ĠIndia": 6461,
      "iments": 6462,
      "Ġrecords": 6463,
      "Ġavg": 6464,
      "obile": 6465,
      "Ġofficial": 6466,
      "Ġclassification": 6467,
      "make": 6468,
      ".pdf": 6469,
      "',čĊ": 6470,
      ".extend": 6471,
      "_directory": 6472,
      "call": 6473,
      "_training": 6474,
      "2007": 6475,
      "rier": 6476,
      "_vals": 6477,
      "Ġprivate": 6478,
      ".args": 6479,
      "rl": 6480,
      "Ġfall": 6481,
      "vey": 6482,
      "ocument": 6483,
      "ATCH": 6484,
      "arest": 6485,
      "theta": 6486,
      "Ġmonitor": 6487,
      "_first": 6488,
      ".insert": 6489,
      "omain": 6490,
      "Ġphase": 6491,
      "dest": 6492,
      "force": 6493,
      "Ġlove": 6494,
      ".cuda": 6495,
      "Num": 6496,
      "ky": 6497,
      "Ġwarm": 6498,
      "entity": 6499,
      "arison": 6500,
      "_metrics": 6501,
      "Ġht": 6502,
      "$\\": 6503,
      ".mark": 6504,
      "iforn": 6505,
      "Ġcounts": 6506,
      ".assertTrue": 6507,
      "IONS": 6508,
      "Level": 6509,
      "(size": 6510,
      "_jobs": 6511,
      "Ġinvolved": 6512,
      "[self": 6513,
      "_models": 6514,
      "ircuit": 6515,
      "å®": 6516,
      "pm": 6517,
      "matrix": 6518,
      "ĠĠĠĠĠĠĠĠĠĠĠĠĠĠĠĠĠĠĠĠĠĠĠĠĠĠĠĠĠĠĠĠĠĠĠĠĠĠĠĠĠĠĠ": 6519,
      "={\"": 6520,
      "(map": 6521,
      "olog": 6522,
      "Ġanimal": 6523,
      "example": 6524,
      ",s": 6525,
      "ker": 6526,
      "_items": 6527,
      "_read": 6528,
      "################################################################": 6529,
      "Ġratio": 6530,
      "isual": 6531,
      "Ġsec": 6532,
      "Ġregister": 6533,
      "-A": 6534,
      "ĠNow": 6535,
      "Ġwild": 6536,
      "Ġroom": 6537,
      "iling": 6538,
      "UB": 6539,
      ".url": 6540,
      "Ġdomain": 6541,
      "_preds": 6542,
      "Ġprovid": 6543,
      "select": 6544,
      "Ġhar": 6545,
      "oom": 6546,
      "Ġ'Ċ": 6547,
      "Ġste": 6548,
      "hs": 6549,
      "ecause": 6550,
      "egative": 6551,
      "Ġextreme": 6552,
      "Ġinj": 6553,
      "Ġstride": 6554,
      "PA": 6555,
      "web": 6556,
      "original": 6557,
      "Ġconcent": 6558,
      "hat": 6559,
      "Ġsquare": 6560,
      "ospital": 6561,
      "see": 6562,
      "Ġstorage": 6563,
      "_sent": 6564,
      "oost": 6565,
      "(float": 6566,
      "Ġelectric": 6567,
      "Ġweather": 6568,
      "ilies": 6569,
      "rices": 6570,
      "(start": 6571,
      "lags": 6572,
      "ĠĠĠĊ": 6573,
      "(ro": 6574,
      "Ġdemonstr": 6575,
      "eed": 6576,
      "_match": 6577,
      "(expr": 6578,
      "Ġharm": 6579,
      "Ġsyn": 6580,
      "Ġencoura": 6581,
      "hicle": 6582,
      "Ġnews": 6583,
      "ëĭ": 6584,
      "ieved": 6585,
      "Ġsets": 6586,
      "Ġdelete": 6587,
      "_best": 6588,
      "OK": 6589,
      "Ġrules": 6590,
      "ĠĠĠĠĠĠĠĠĠĠĠĠĠĠĠĠĠĠĠĠĠĠĠĠĠĠĠĠĠĠĠĠĠĠĠĠ": 6591,
      "ivot": 6592,
      "Ġsafety": 6593,
      "cos": 6594,
      "Ġscientists": 6595,
      "_location": 6596,
      "(inputs": 6597,
      "offset": 6598,
      "Ġguide": 6599,
      "=dict": 6600,
      "Ñĩ": 6601,
      "Ġnight": 6602,
      "OUR": 6603,
      "crete": 6604,
      "Exp": 6605,
      "OG": 6606,
      "INE": 6607,
      "Ġtrees": 6608,
      "RI": 6609,
      "Ġrelative": 6610,
      "Ġexport": 6611,
      "energy": 6612,
      "Ġpackage": 6613,
      "_left": 6614,
      "_distance": 6615,
      "(con": 6616,
      "_com": 6617,
      "('%": 6618,
      "life": 6619,
      "Ġmor": 6620,
      "Button": 6621,
      "_address": 6622,
      "_network": 6623,
      ".describe": 6624,
      "(type": 6625,
      "_offset": 6626,
      "ifornia": 6627,
      "Ġspeak": 6628,
      "........": 6629,
      "isation": 6630,
      ".)": 6631,
      "Ġarr": 6632,
      "Ġmanufact": 6633,
      "ĠRem": 6634,
      "_paths": 6635,
      "è¡": 6636,
      "Ġeasily": 6637,
      "Ġchanged": 6638,
      "[y": 6639,
      "nb": 6640,
      "tri": 6641,
      "stop": 6642,
      ".red": 6643,
      "seq": 6644,
      "Ġlegend": 6645,
      "Dist": 6646,
      "Ġgenerally": 6647,
      "(get": 6648,
      "entials": 6649,
      "ÑĮ": 6650,
      "Ġbeh": 6651,
      "itan": 6652,
      "Ġmachine": 6653,
      "Ġpool": 6654,
      "Ġlibrary": 6655,
      ".mat": 6656,
      "ampling": 6657,
      "=.": 6658,
      "__':Ċ": 6659,
      ".search": 6660,
      "Act": 6661,
      "_cluster": 6662,
      "tag": 6663,
      "Ġfeet": 6664,
      "norm": 6665,
      "_ds": 6666,
      "Ġbooks": 6667,
      "(root": 6668,
      "RES": 6669,
      "correct": 6670,
      "rowser": 6671,
      "/test": 6672,
      "Ġcmd": 6673,
      "Ġcache": 6674,
      "ĠLear": 6675,
      "(state": 6676,
      "Ġeye": 6677,
      "plits": 6678,
      "ĠPres": 6679,
      "Ġbank": 6680,
      "_lr": 6681,
      "Ġreli": 6682,
      "ĠPri": 6683,
      "Ġ]": 6684,
      "Ġtro": 6685,
      ".X": 6686,
      "STM": 6687,
      "auto": 6688,
      "Ġmulti": 6689,
      "erved": 6690,
      "ĠJan": 6691,
      "admin": 6692,
      "Ġpick": 6693,
      ".asarray": 6694,
      ".parameters": 6695,
      "Read": 6696,
      "`Ċ": 6697,
      "ustomer": 6698,
      "_module": 6699,
      "week": 6700,
      "Ġdat": 6701,
      "osure": 6702,
      "Mean": 6703,
      "ugment": 6704,
      ".batch": 6705,
      "radius": 6706,
      "Ġinternational": 6707,
      "_net": 6708,
      "Ġsea": 6709,
      "=[]Ċ": 6710,
      "Ġparticularly": 6711,
      ",p": 6712,
      "Ġappropriate": 6713,
      "åŃ": 6714,
      "Ġtransport": 6715,
      "Ġshap": 6716,
      "Ġ\"%": 6717,
      "Ġstarting": 6718,
      "CL": 6719,
      "(nn": 6720,
      "è®": 6721,
      "icode": 6722,
      "Ġscript": 6723,
      "Ġ\"_": 6724,
      "ESS": 6725,
      "verbose": 6726,
      "enario": 6727,
      "oke": 6728,
      "fontsize": 6729,
      "Ġprotein": 6730,
      "=lambda": 6731,
      "current": 6732,
      "Ġstock": 6733,
      "Ġcurrently": 6734,
      "gr": 6735,
      "servations": 6736,
      ".jpg": 6737,
      "ĠRet": 6738,
      "Ġfoods": 6739,
      "Ġts": 6740,
      "Users": 6741,
      "ialog": 6742,
      "Ġtherefore": 6743,
      "Ġlw": 6744,
      "ÐµÐ½": 6745,
      "_like": 6746,
      "Ġdeveloping": 6747,
      "(Dense": 6748,
      "PT": 6749,
      "_components": 6750,
      "iques": 6751,
      "Event": 6752,
      "Ġgrowing": 6753,
      "uess": 6754,
      "_day": 6755,
      ".relu": 6756,
      "Create": 6757,
      "Ġthus": 6758,
      "_ylim": 6759,
      ".iter": 6760,
      "iet": 6761,
      "stitution": 6762,
      ".Model": 6763,
      "Ġnormalize": 6764,
      "_bound": 6765,
      "}$": 6766,
      "_abs": 6767,
      "minal": 6768,
      ".stats": 6769,
      "_inputs": 6770,
      "za": 6771,
      "Ġbeginning": 6772,
      ".format": 6773,
      "Ġ]ĊĊ": 6774,
      "Ġadjust": 6775,
      "erg": 6776,
      "irit": 6777,
      "_initializer": 6778,
      "metric": 6779,
      "ĠCenter": 6780,
      "ĠMax": 6781,
      "Handler": 6782,
      "_session": 6783,
      "')(": 6784,
      ".ylim": 6785,
      "char": 6786,
      "1024": 6787,
      "andidate": 6788,
      "ĠÐ¿": 6789,
      "sche": 6790,
      "Ġcentral": 6791,
      "GET": 6792,
      "holder": 6793,
      "ima": 6794,
      "unct": 6795,
      "Ġcompared": 6796,
      "Ġsomeone": 6797,
      "mall": 6798,
      "Ġ'{": 6799,
      "Ġclick": 6800,
      "client": 6801,
      "Ġâ": 6802,
      "ensus": 6803,
      "liers": 6804,
      ".draw": 6805,
      "elling": 6806,
      "Ġtravel": 6807,
      ",d": 6808,
      ".*": 6809,
      "ĠAustral": 6810,
      "__()Ċ": 6811,
      "Ġwhose": 6812,
      "ĠChar": 6813,
      "Ġteachers": 6814,
      "ĠRec": 6815,
      "501": 6816,
      "udget": 6817,
      "ĠMore": 6818,
      "Ġserious": 6819,
      "aid": 6820,
      ".dist": 6821,
      "region": 6822,
      "rab": 6823,
      "Ġlargest": 6824,
      "atmap": 6825,
      "Ġproced": 6826,
      "ci": 6827,
      "lider": 6828,
      "mble": 6829,
      "Ġ------": 6830,
      "Ġaware": 6831,
      "Ġbirth": 6832,
      "ĠSV": 6833,
      "ĠEast": 6834,
      "strument": 6835,
      "ĠFROM": 6836,
      "ĠLet": 6837,
      "Ġdensity": 6838,
      "px": 6839,
      "Ġimmed": 6840,
      ".Input": 6841,
      "stall": 6842,
      "tty": 6843,
      "Ġimportance": 6844,
      "Ġskip": 6845,
      "_metadata": 6846,
      "Ġgr": 6847,
      "=pd": 6848,
      "CS": 6849,
      "sely": 6850,
      "Ġdevices": 6851,
      "=x": 6852,
      ".\"\"\"ĊĊ": 6853,
      "Ġcit": 6854,
      "Ġfoot": 6855,
      "pter": 6856,
      "]:": 6857,
      "blem": 6858,
      "Ġsupply": 6859,
      "uary": 6860,
      ",j": 6861,
      "irmed": 6862,
      ".init": 6863,
      "event": 6864,
      "Ġnamed": 6865,
      "Ġtrade": 6866,
      "á»": 6867,
      "Ġmental": 6868,
      "lux": 6869,
      "Ġaxs": 6870,
      "(results": 6871,
      "urv": 6872,
      "Ġstand": 6873,
      "Ġut": 6874,
      "Ġmigrations": 6875,
      "ĠMost": 6876,
      "argin": 6877,
      "_instance": 6878,
      "Ġ'#": 6879,
      "_month": 6880,
      "Ġcritical": 6881,
      "centage": 6882,
      "MSE": 6883,
      "igger": 6884,
      "_cat": 6885,
      "Ġima": 6886,
      "111": 6887,
      "Ġ\"-": 6888,
      "Ġworkers": 6889,
      "Ġclassifier": 6890,
      "ĠFunction": 6891,
      "haps": 6892,
      "Ġprobability": 6893,
      "Ġtalk": 6894,
      "Ġdog": 6895,
      "house": 6896,
      "Ġprocesses": 6897,
      "Ġcos": 6898,
      "ĠConstraint": 6899,
      "Ġ###": 6900,
      "ĠDefault": 6901,
      "Ġtrace": 6902,
      "wb": 6903,
      "acts": 6904,
      "ĠComm": 6905,
      "Ġeverything": 6906,
      "idents": 6907,
      "timestamp": 6908,
      "parameters": 6909,
      ".norm": 6910,
      "800": 6911,
      "Ġten": 6912,
      "prec": 6913,
      "Integer": 6914,
      "ĠWAR": 6915,
      "ields": 6916,
      "ĠOther": 6917,
      "ĠPol": 6918,
      "Ġenter": 6919,
      "Ġlib": 6920,
      "Ġsustain": 6921,
      "Ġquite": 6922,
      "Ġsla": 6923,
      "tree": 6924,
      "outher": 6925,
      "car": 6926,
      "Ġrates": 6927,
      "ĠChina": 6928,
      "ĠMany": 6929,
      "_Y": 6930,
      "Ġnb": 6931,
      ".starts": 6932,
      ".current": 6933,
      "Ġangle": 6934,
      "foo": 6935,
      "Ġchunk": 6936,
      "full": 6937,
      "Spec": 6938,
      "Some": 6939,
      "ipment": 6940,
      "(\"%": 6941,
      "Ġago": 6942,
      ".Module": 6943,
      "iving": 6944,
      "encoder": 6945,
      ".base": 6946,
      "ĠANY": 6947,
      "Ġbab": 6948,
      "+=": 6949,
      "Ġquickly": 6950,
      "Ġpassword": 6951,
      "ÑģÑĤ": 6952,
      "Layer": 6953,
      "Ġkids": 6954,
      ".startswith": 6955,
      "#!/": 6956,
      "Ġinvestig": 6957,
      ".now": 6958,
      "mul": 6959,
      "ĠFile": 6960,
      "Ġtags": 6961,
      ".)Ċ": 6962,
      "_bin": 6963,
      ".randn": 6964,
      "_clusters": 6965,
      "Ep": 6966,
      "Ġoutcome": 6967,
      "_settings": 6968,
      "tmp": 6969,
      "Ã³n": 6970,
      "Ġtend": 6971,
      "orary": 6972,
      "_last": 6973,
      "IME": 6974,
      "/w": 6975,
      "ored": 6976,
      "Ġargparse": 6977,
      "elihood": 6978,
      "ashing": 6979,
      "_kwargs": 6980,
      "ĠJes": 6981,
      "_[": 6982,
      "ĠGrid": 6983,
      "datetime": 6984,
      "cles": 6985,
      "aps": 6986,
      "loaded": 6987,
      "Ġacid": 6988,
      ".ed": 6989,
      "comb": 6990,
      "Ġdrive": 6991,
      "egin": 6992,
      "ĠLabel": 6993,
      "umul": 6994,
      "Ġseems": 6995,
      "à¤": 6996,
      "ĠArt": 6997,
      "Ġcommunities": 6998,
      "Ġblue": 6999,
      "unt": 7000,
      "Ġmolec": 7001,
      "Ġpaint": 7002,
      "Process": 7003,
      "Ġdry": 7004,
      "Ġveget": 7005,
      "\">": 7006,
      "Ġinstit": 7007,
      "Ġmount": 7008,
      "_pool": 7009,
      "article": 7010,
      "Ġcosts": 7011,
      "ouch": 7012,
      "ĠMon": 7013,
      "Ġfailed": 7014,
      "Ġhyper": 7015,
      "FO": 7016,
      "Ġmeta": 7017,
      "/n": 7018,
      "gree": 7019,
      "Ġmiddle": 7020,
      "tual": 7021,
      "Ġrotation": 7022,
      "Average": 7023,
      "Ġ\"__": 7024,
      "Ġnothing": 7025,
      "_mer": 7026,
      "Ġvacc": 7027,
      "ugust": 7028,
      "met": 7029,
      "Ġconfiguration": 7030,
      "ĠDefine": 7031,
      "fc": 7032,
      "Ġtheory": 7033,
      "Ġscientific": 7034,
      "lide": 7035,
      "Ġdiseases": 7036,
      "ourse": 7037,
      "_par": 7038,
      "Ġideas": 7039,
      "Ġdriver": 7040,
      "(random": 7041,
      "Ġmult": 7042,
      "Ġplatform": 7043,
      "upp": 7044,
      "application": 7045,
      "LS": 7046,
      "Ġna": 7047,
      ".make": 7048,
      "=r": 7049,
      "itory": 7050,
      "Ġtraditional": 7051,
      "Ġleading": 7052,
      "Ġapplied": 7053,
      "Ġthous": 7054,
      "_pl": 7055,
      "Ġexpression": 7056,
      "stm": 7057,
      "ando": 7058,
      "Ġ\"--": 7059,
      "ĠAm": 7060,
      "atalo": 7061,
      "cohol": 7062,
      "ĠConv": 7063,
      "Ġgives": 7064,
      "true": 7065,
      "PR": 7066,
      "Ġdecl": 7067,
      "upt": 7068,
      "Ġminimum": 7069,
      "pril": 7070,
      "Ġprev": 7071,
      "Ġexercise": 7072,
      ".line": 7073,
      "Ġwood": 7074,
      "venue": 7075,
      "Ġachieve": 7076,
      "ĠSequential": 7077,
      "AND": 7078,
      "Ġheld": 7079,
      "tolist": 7080,
      "FAULT": 7081,
      ".eval": 7082,
      "outhern": 7083,
      "ĠĠĠĠĠĠĠĠĠĠĠĠĠĠĠĠĠĠĠĠĠĠĠĠĠĠĠĠĠĠĠĠĠĠĠĠĠ": 7084,
      "OLOR": 7085,
      "Ġleaders": 7086,
      "Ġxy": 7087,
      ".cos": 7088,
      "Ġoverall": 7089,
      "mbed": 7090,
      "ams": 7091,
      "Ġsus": 7092,
      "beta": 7093,
      "joy": 7094,
      "\"\\": 7095,
      ".post": 7096,
      "Ġdark": 7097,
      "AGE": 7098,
      "ĠCalculate": 7099,
      "rated": 7100,
      "Ġcapital": 7101,
      "fol": 7102,
      "Ġgradient": 7103,
      "predictions": 7104,
      ".map": 7105,
      "_seed": 7106,
      "(my": 7107,
      "cell": 7108,
      "hesis": 7109,
      "Ġascending": 7110,
      "ND": 7111,
      "Ġinterpre": 7112,
      ")s": 7113,
      ".O": 7114,
      "Ġexception": 7115,
      "ailed": 7116,
      "Ġstay": 7117,
      "Ġplaces": 7118,
      "ĠFrom": 7119,
      "session": 7120,
      "ĠRob": 7121,
      "VER": 7122,
      "Source": 7123,
      "Ġí": 7124,
      "erializer": 7125,
      "_msg": 7126,
      "Message": 7127,
      "Conv": 7128,
      "Ġcharacters": 7129,
      ".use": 7130,
      "ĠStandardScaler": 7131,
      "-re": 7132,
      "ological": 7133,
      "Ġwriter": 7134,
      "CR": 7135,
      "ĠDist": 7136,
      "Ġ~": 7137,
      "related": 7138,
      "water": 7139,
      "ensemble": 7140,
      "prob": 7141,
      "TT": 7142,
      "Ġprocessing": 7143,
      ".choice": 7144,
      "het": 7145,
      "Ġletter": 7146,
      "Ġhour": 7147,
      "_command": 7148,
      "]}": 7149,
      "Ġprojects": 7150,
      "Implement": 7151,
      "_eval": 7152,
      "quality": 7153,
      "Ġwrong": 7154,
      "_non": 7155,
      "Ġseg": 7156,
      "dam": 7157,
      "Ġcompanies": 7158,
      "ReLU": 7159,
      "ributions": 7160,
      "ida": 7161,
      "Ġsolar": 7162,
      "Ġinteger": 7163,
      "response": 7164,
      "(db": 7165,
      "(mean": 7166,
      "(obj": 7167,
      ".listdir": 7168,
      ".delete": 7169,
      "oogle": 7170,
      "Ġwent": 7171,
      "ĠSw": 7172,
      "Ġvers": 7173,
      "zen": 7174,
      "END": 7175,
      "Ġanything": 7176,
      "src": 7177,
      "Ġsamp": 7178,
      "Ġpoll": 7179,
      "threshold": 7180,
      "ĠIPython": 7181,
      "xi": 7182,
      "Ġ\")Ċ": 7183,
      "Ġbur": 7184,
      "Ġalgorithm": 7185,
      "Ġali": 7186,
      "ĠGroup": 7187,
      "\"+": 7188,
      "ĠIndian": 7189,
      "ĠTensor": 7190,
      "_fields": 7191,
      "Ġrain": 7192,
      "Ġcivil": 7193,
      "Norm": 7194,
      "_times": 7195,
      "orial": 7196,
      "ĠLogisticRegression": 7197,
      "_av": 7198,
      "Block": 7199,
      "ĠTech": 7200,
      "Ġ''Ċ": 7201,
      "assword": 7202,
      "Ġvit": 7203,
      "aily": 7204,
      "3333": 7205,
      "Ġask": 7206,
      "aises": 7207,
      "Ġfeat": 7208,
      "Line": 7209,
      ".datasets": 7210,
      "Ġtruth": 7211,
      "server": 7212,
      "Ġhtml": 7213,
      ".Col": 7214,
      ".xlim": 7215,
      "MAX": 7216,
      "Ġfinancial": 7217,
      "(E": 7218,
      "iation": 7219,
      "Ġsold": 7220,
      "ja": 7221,
      "ducation": 7222,
      "(sample": 7223,
      ".dir": 7224,
      "Ġhumans": 7225,
      "UG": 7226,
      "Ġpen": 7227,
      "ĠSim": 7228,
      "Ġ{}ĊĊ": 7229,
      "Ġpipeline": 7230,
      "ftime": 7231,
      "(im": 7232,
      "Ġhighly": 7233,
      "_edge": 7234,
      ".pkl": 7235,
      ".next": 7236,
      "ICE": 7237,
      "Ġdro": 7238,
      "Ġinterval": 7239,
      "Ġremoved": 7240,
      ".round": 7241,
      "Ġfat": 7242,
      ".Get": 7243,
      "('.": 7244,
      "Ġlost": 7245,
      "_curve": 7246,
      "undred": 7247,
      "Ã§Ã£o": 7248,
      "Ġencoder": 7249,
      "æĪ": 7250,
      "Ġsupported": 7251,
      "header": 7252,
      "urrency": 7253,
      ".Sequential": 7254,
      "ĠFind": 7255,
      "-n": 7256,
      "Ġclin": 7257,
      "-B": 7258,
      "Ġattributes": 7259,
      "Ġinfection": 7260,
      "Ġexpla": 7261,
      "rd": 7262,
      "(drop": 7263,
      "Ġsites": 7264,
      "igration": 7265,
      "({\"": 7266,
      "ORM": 7267,
      "Ġsmaller": 7268,
      "ERR": 7269,
      "Ġhighest": 7270,
      "LP": 7271,
      "Ġsoon": 7272,
      "Ġexecut": 7273,
      "Ġ+Ċ": 7274,
      "ĠMo": 7275,
      "HA": 7276,
      "alled": 7277,
      "_bar": 7278,
      "_err": 7279,
      "Ġeco": 7280,
      ".dumps": 7281,
      "/%": 7282,
      "_random": 7283,
      "Ġtowards": 7284,
      "\")ĊĊĊ": 7285,
      "ka": 7286,
      "ya": 7287,
      "ĠRuss": 7288,
      "osen": 7289,
      "5000": 7290,
      "rupt": 7291,
      "otebook": 7292,
      "atures": 7293,
      "_cache": 7294,
      "Ġestablished": 7295,
      "eter": 7296,
      "Ġmilitary": 7297,
      "loyment": 7298,
      "Ġbuy": 7299,
      "ĠAfrica": 7300,
      "task": 7301,
      "ĠFrench": 7302,
      "uplicates": 7303,
      "optimizer": 7304,
      "ĠVar": 7305,
      "Ġdrug": 7306,
      "squeeze": 7307,
      "Ġreduced": 7308,
      "]ĊĊĊ": 7309,
      "ĠÃ": 7310,
      "Ġwebsite": 7311,
      "_pack": 7312,
      "urface": 7313,
      "_I": 7314,
      "arp": 7315,
      "CON": 7316,
      "ä¸Ģ": 7317,
      "diff": 7318,
      "processed": 7319,
      "Ġotherwise": 7320,
      "Ġbehind": 7321,
      "Ġlabor": 7322,
      "Ġconnected": 7323,
      "derr": 7324,
      "Point": 7325,
      "Ġwest": 7326,
      "ĠEuropean": 7327,
      "dy": 7328,
      "Ġfight": 7329,
      "âĢĻll": 7330,
      "Ġbal": 7331,
      "(zip": 7332,
      "_delete": 7333,
      "dat": 7334,
      "CTION": 7335,
      "_counter": 7336,
      "stim": 7337,
      "Ġcombined": 7338,
      "æĺ": 7339,
      "resses": 7340,
      "ÑĢÐ°": 7341,
      "isms": 7342,
      ".register": 7343,
      "classmethod": 7344,
      "inner": 7345,
      "road": 7346,
      "Ġsegment": 7347,
      "ĠEnt": 7348,
      "Filter": 7349,
      "Ġnuc": 7350,
      "ulary": 7351,
      "EG": 7352,
      "ĠDay": 7353,
      "cut": 7354,
      "matic": 7355,
      "Ġcorresponding": 7356,
      "Ġinterpol": 7357,
      "lank": 7358,
      "{'": 7359,
      "_char": 7360,
      "Ġindust": 7361,
      "[b": 7362,
      "Transform": 7363,
      "Plot": 7364,
      "LL": 7365,
      "Ġviews": 7366,
      "Ġgenerator": 7367,
      "Ġlimited": 7368,
      "_inches": 7369,
      "(\"../": 7370,
      "Ġfn": 7371,
      "âĢ¢": 7372,
      "expected": 7373,
      "Ġmoving": 7374,
      "uted": 7375,
      "umor": 7376,
      "_ip": 7377,
      "Ġagree": 7378,
      "Ġdescribed": 7379,
      "Ġtasks": 7380,
      "_change": 7381,
      "Ġgoes": 7382,
      ".function": 7383,
      "ĠInstitute": 7384,
      "ilk": 7385,
      "ĠThen": 7386,
      "ocr": 7387,
      "urban": 7388,
      "_dis": 7389,
      "Ġprofile": 7390,
      "Ġfold": 7391,
      "ĠEach": 7392,
      ".loads": 7393,
      "rm": 7394,
      "imize": 7395,
      "_service": 7396,
      "Ġseek": 7397,
      "ining": 7398,
      "Ġpatch": 7399,
      "Ġsituation": 7400,
      "viation": 7401,
      "ĠAS": 7402,
      "BC": 7403,
      "Ġpp": 7404,
      "atalog": 7405,
      "/or": 7406,
      "åĩ": 7407,
      "PP": 7408,
      "series": 7409,
      "Pooling": 7410,
      "nov": 7411,
      "rugs": 7412,
      "_edges": 7413,
      "Ġband": 7414,
      "Ġdead": 7415,
      "rase": 7416,
      "ĠEmp": 7417,
      "ĠWIT": 7418,
      "aur": 7419,
      "Ġum": 7420,
      "'ll": 7421,
      "ĠJesus": 7422,
      "span": 7423,
      "ĠDepartment": 7424,
      "Ġisn": 7425,
      "inese": 7426,
      "ĠHigh": 7427,
      "Ġnation": 7428,
      "åĽ": 7429,
      "dp": 7430,
      "gon": 7431,
      "ceed": 7432,
      "Ġembedding": 7433,
      ":]": 7434,
      "urt": 7435,
      "Ġmention": 7436,
      "ĠMarch": 7437,
      "éĩ": 7438,
      "çĶ¨": 7439,
      "useum": 7440,
      "case": 7441,
      "Ġstrateg": 7442,
      "ench": 7443,
      "Ġobserved": 7444,
      "_option": 7445,
      "åº": 7446,
      "ĠGeneral": 7447,
      "ĠProject": 7448,
      "ĠCompute": 7449,
      "ĠOver": 7450,
      "ĠSy": 7451,
      "=%": 7452,
      "Ġhash": 7453,
      ")\")Ċ": 7454,
      "bert": 7455,
      "non": 7456,
      "Ġcities": 7457,
      "Ġlon": 7458,
      "question": 7459,
      "Ġconn": 7460,
      "Ġrecommend": 7461,
      "arrow": 7462,
      "Ġreceive": 7463,
      "urity": 7464,
      "itable": 7465,
      "inger": 7466,
      "axs": 7467,
      "Ġ\"\"Ċ": 7468,
      ".fc": 7469,
      "ĠCalifornia": 7470,
      "Over": 7471,
      "Ġalthough": 7472,
      "_proba": 7473,
      "Ġgard": 7474,
      "Ġsaved": 7475,
      "Ġtimeout": 7476,
      "arian": 7477,
      "dates": 7478,
      "@pytest": 7479,
      "ĠURL": 7480,
      "ares": 7481,
      "Ġmaster": 7482,
      "occ": 7483,
      "connect": 7484,
      "Ġhands": 7485,
      "Ġupdated": 7486,
      ".transpose": 7487,
      "stic": 7488,
      "oting": 7489,
      "VE": 7490,
      "Ġrecall": 7491,
      "ĠMA": 7492,
      "SearchCV": 7493,
      "(un": 7494,
      "Ġlocated": 7495,
      "MPLE": 7496,
      "Ġfalse": 7497,
      "(base": 7498,
      "rieve": 7499,
      "Ġrock": 7500,
      "ĠOct": 7501,
      "']==": 7502,
      "_header": 7503,
      "bf": 7504,
      "anded": 7505,
      "ĠTemp": 7506,
      "ĠColumn": 7507,
      "Ġentity": 7508,
      "transform": 7509,
      ".Tensor": 7510,
      "Logger": 7511,
      "Ġdemand": 7512,
      "Ġsurv": 7513,
      "fillna": 7514,
      "_right": 7515,
      "OST": 7516,
      "_outputs": 7517,
      "ĠGerman": 7518,
      "Ġstatistics": 7519,
      "Ġedges": 7520,
      "Ge": 7521,
      "_prediction": 7522,
      "sigma": 7523,
      "Ġinsert": 7524,
      "Ġmessages": 7525,
      "Dep": 7526,
      "Ġcycle": 7527,
      "_xlim": 7528,
      "Ġapproxim": 7529,
      "Ġreve": 7530,
      ".ab": 7531,
      "Function": 7532,
      "_KEY": 7533,
      "=[Ċ": 7534,
      "(params": 7535,
      "2006": 7536,
      "find": 7537,
      "lik": 7538,
      "Ġorient": 7539,
      "iding": 7540,
      "_channel": 7541,
      "ENSE": 7542,
      "_validation": 7543,
      "column": 7544,
      "Ġregions": 7545,
      "elif": 7546,
      "oreign": 7547,
      "velopment": 7548,
      "âĢĻve": 7549,
      "Ġfamilies": 7550,
      "ĠAnt": 7551,
      "high": 7552,
      "inf": 7553,
      "Ġweeks": 7554,
      "IA": 7555,
      "Manager": 7556,
      "entry": 7557,
      "Ġleaves": 7558,
      "Ġblank": 7559,
      "Ġstation": 7560,
      "hare": 7561,
      "udent": 7562,
      "ĉfor": 7563,
      "Ġtransfer": 7564,
      "lers": 7565,
      "ĠString": 7566,
      "alking": 7567,
      "Ġfixed": 7568,
      "Ġincome": 7569,
      "_stat": 7570,
      "GR": 7571,
      "tails": 7572,
      "Ġcols": 7573,
      "ees": 7574,
      "mercial": 7575,
      "eler": 7576,
      "ira": 7577,
      "Ġcloud": 7578,
      "ensors": 7579,
      "bits": 7580,
      "TC": 7581,
      "men": 7582,
      "geometry": 7583,
      "iber": 7584,
      "_limit": 7585,
      "_period": 7586,
      "ĠĠĠĠĊĠĠĠĠĊ": 7587,
      "ĠĠĠĠĠĠĠĠĠĠĠĠĠĠĠĠĠĠĠĠĠĠĠĠĠĠĠĠĠĠĠĠĠĠĠĠĠĠ": 7588,
      "uzz": 7589,
      "ĠLab": 7590,
      "Ġhope": 7591,
      "Ġult": 7592,
      "clean": 7593,
      "Ġpartial": 7594,
      "tn": 7595,
      "Ġapplications": 7596,
      "VAL": 7597,
      "ĠĠĠĠĊĊ": 7598,
      "hex": 7599,
      "-M": 7600,
      "_attr": 7601,
      "Ġleave": 7602,
      "itis": 7603,
      "Ġdoctor": 7604,
      "Ġgl": 7605,
      "_LE": 7606,
      "oe": 7607,
      "Ġbecomes": 7608,
      "ober": 7609,
      "Ġteacher": 7610,
      "ĠAfrican": 7611,
      "#print": 7612,
      "Ġweak": 7613,
      "_ep": 7614,
      "click": 7615,
      "dot": 7616,
      "Ġow": 7617,
      "ĠProp": 7618,
      "odies": 7619,
      "End": 7620,
      "Ġcarry": 7621,
      "ny": 7622,
      ",f": 7623,
      "-de": 7624,
      "reh": 7625,
      "gument": 7626,
      "VID": 7627,
      "Ġsuccessful": 7628,
      "CD": 7629,
      "_groups": 7630,
      ".al": 7631,
      "IX": 7632,
      "Ġrestrict": 7633,
      "ĠII": 7634,
      "Ġburn": 7635,
      "/env": 7636,
      "mc": 7637,
      "ĠCity": 7638,
      "Ġpet": 7639,
      "/S": 7640,
      "_window": 7641,
      "ĠExp": 7642,
      "nergy": 7643,
      "seed": 7644,
      "steps": 7645,
      ".isnull": 7646,
      "ĠInternational": 7647,
      "Ġinfluence": 7648,
      "arc": 7649,
      ".evaluate": 7650,
      "Ġfilters": 7651,
      "ayes": 7652,
      "ä¸ª": 7653,
      "ircle": 7654,
      "Ġseparate": 7655,
      "_CON": 7656,
      "organ": 7657,
      "Ġhabit": 7658,
      "ĠPark": 7659,
      "job": 7660,
      "_area": 7661,
      "otion": 7662,
      "none": 7663,
      "ball": 7664,
      "({Ċ": 7665,
      "Ġtypically": 7666,
      "000000": 7667,
      "ptember": 7668,
      "Ġpul": 7669,
      "Ġbroad": 7670,
      "[[": 7671,
      "Context": 7672,
      "ĠVersion": 7673,
      "Ġfp": 7674,
      "_mark": 7675,
      "\"])ĊĊ": 7676,
      "ĠKe": 7677,
      "Ġgold": 7678,
      "-D": 7679,
      "-C": 7680,
      "Ġplease": 7681,
      "Ġcapacity": 7682,
      "logs": 7683,
      "binary": 7684,
      "uries": 7685,
      "ĠJune": 7686,
      "_clf": 7687,
      "/D": 7688,
      "iny": 7689,
      "ĠSch": 7690,
      "__,": 7691,
      "Pos": 7692,
      "ĠOpen": 7693,
      "isf": 7694,
      "*x": 7695,
      "Ġjud": 7696,
      "Ġprotection": 7697,
      "âĶ": 7698,
      "pad": 7699,
      "Purchase": 7700,
      "2005": 7701,
      ".tick": 7702,
      "tach": 7703,
      "Ġthinking": 7704,
      "ama": 7705,
      "Ġteaching": 7706,
      "Ġregression": 7707,
      "_obs": 7708,
      "Ġbalance": 7709,
      "Ġhue": 7710,
      "Top": 7711,
      "Ġpatterns": 7712,
      "ĠHer": 7713,
      "ford": 7714,
      ".čĊ": 7715,
      "ĠWARRAN": 7716,
      "Policy": 7717,
      "fold": 7718,
      "ellig": 7719,
      ".act": 7720,
      "uy": 7721,
      "ĠWH": 7722,
      "Ġabsolute": 7723,
      "Ġfriend": 7724,
      "Ġprepare": 7725,
      "_env": 7726,
      "[np": 7727,
      "ographic": 7728,
      ".params": 7729,
      "SET": 7730,
      "Ġstored": 7731,
      "Ġdpi": 7732,
      "peat": 7733,
      "more": 7734,
      "Ġfully": 7735,
      "Ġwalk": 7736,
      "(kind": 7737,
      "_bytes": 7738,
      "110": 7739,
      "Ġlists": 7740,
      "ĠLib": 7741,
      "logger": 7742,
      "ij": 7743,
      "ĠOutput": 7744,
      "Ġprefer": 7745,
      "Ġshall": 7746,
      "Ġrank": 7747,
      "([-": 7748,
      "_units": 7749,
      "ĠBuild": 7750,
      "Options": 7751,
      "%(": 7752,
      "Ġradius": 7753,
      "NG": 7754,
      "arter": 7755,
      ".contrib": 7756,
      "stats": 7757,
      "ĠText": 7758,
      "cuda": 7759,
      "Ġstrategy": 7760,
      "Ġdefinition": 7761,
      "clus": 7762,
      "_description": 7763,
      "ĠMark": 7764,
      "_handler": 7765,
      "ĠConvert": 7766,
      "ifiers": 7767,
      "real": 7768,
      "Implemented": 7769,
      "_pipeline": 7770,
      "/A": 7771,
      "Ġenjoy": 7772,
      "idity": 7773,
      "Widgets": 7774,
      "ĠScore": 7775,
      "ĠAlso": 7776,
      "125": 7777,
      "Ġcultural": 7778,
      "ĠLat": 7779,
      "Ġorganization": 7780,
      "erior": 7781,
      "(date": 7782,
      "ĠTr": 7783,
      "Part": 7784,
      "Ġfollowed": 7785,
      "(with": 7786,
      "Ġconstruction": 7787,
      "Ġtrying": 7788,
      "Ġreader": 7789,
      "Ġdebug": 7790,
      "enes": 7791,
      "Ġcolon": 7792,
      "vt": 7793,
      "_current": 7794,
      "Ġ%(": 7795,
      "ĠPublic": 7796,
      ".z": 7797,
      "Ġinternal": 7798,
      "Ġlif": 7799,
      "_dot": 7800,
      "Ġcontainer": 7801,
      "(json": 7802,
      "Ġremember": 7803,
      "_ne": 7804,
      "ĠError": 7805,
      "ordinate": 7806,
      "pop": 7807,
      "Ġmut": 7808,
      "ĠOrder": 7809,
      "imed": 7810,
      "_FILE": 7811,
      "Ġobs": 7812,
      "{}'.": 7813,
      "nx": 7814,
      "draw": 7815,
      "_sizes": 7816,
      "_create": 7817,
      "_comb": 7818,
      "ondon": 7819,
      "Ġstim": 7820,
      "sequ": 7821,
      "}_": 7822,
      "Ġcommunication": 7823,
      "shot": 7824,
      "Ġcurr": 7825,
      "ĠHistory": 7826,
      "ano": 7827,
      "mas": 7828,
      "Ġsynt": 7829,
      "XX": 7830,
      "ested": 7831,
      "ossible": 7832,
      "_variables": 7833,
      "ĠPress": 7834,
      "Ġexplain": 7835,
      "ounded": 7836,
      "Ġcoordinates": 7837,
      "_project": 7838,
      "Ð¾Ð²": 7839,
      "_)Ċ": 7840,
      "yper": 7841,
      "(en": 7842,
      "OLD": 7843,
      "Ġice": 7844,
      "ĠÎ": 7845,
      "Ġexposure": 7846,
      "Ġchain": 7847,
      ".tolist": 7848,
      ":\")Ċ": 7849,
      "Ġselection": 7850,
      "_manager": 7851,
      "reek": 7852,
      "ìĿ´": 7853,
      "ĠAugust": 7854,
      "efficient": 7855,
      "Ġevaluation": 7856,
      "indices": 7857,
      "=m": 7858,
      "Ġcfg": 7859,
      "_cent": 7860,
      "Ġbacteria": 7861,
      "pare": 7862,
      "Ġadvant": 7863,
      "ICENSE": 7864,
      "ODEL": 7865,
      "ounc": 7866,
      "_next": 7867,
      "Ġdimensions": 7868,
      "\\xfe": 7869,
      "dition": 7870,
      "Ġunittest": 7871,
      "Ġdanger": 7872,
      "Ġcurve": 7873,
      "rote": 7874,
      "ĠApril": 7875,
      "Ġsubprocess": 7876,
      "Iter": 7877,
      "Ġsouth": 7878,
      "cons": 7879,
      "Ġmeasures": 7880,
      "Ġreflect": 7881,
      "ayload": 7882,
      "ĠMus": 7883,
      "_style": 7884,
      "ĠJuly": 7885,
      "Ġgeneration": 7886,
      "illing": 7887,
      "Ġcele": 7888,
      "ĠPredict": 7889,
      "anguages": 7890,
      "Ġpaths": 7891,
      "ĠConfig": 7892,
      "Ġhundred": 7893,
      "ĠImp": 7894,
      "faces": 7895,
      "next": 7896,
      ".cat": 7897,
      "Ġconflict": 7898,
      "opping": 7899,
      "rot": 7900,
      "Ġwave": 7901,
      ".argv": 7902,
      "Ġrelevant": 7903,
      "Ġapplic": 7904,
      "kernel": 7905,
      "asurement": 7906,
      "orhood": 7907,
      "Feature": 7908,
      "_sequences": 7909,
      ".session": 7910,
      "Ġrelease": 7911,
      ")))": 7912,
      "fin": 7913,
      "Matrix": 7914,
      "structure": 7915,
      "tage": 7916,
      "_Ċ": 7917,
      "SELECT": 7918,
      "WA": 7919,
      "Py": 7920,
      "[data": 7921,
      "ĠHar": 7922,
      "ĠCounty": 7923,
      ".out": 7924,
      "iat": 7925,
      "Ġbrought": 7926,
      "_copy": 7927,
      "ĠChristian": 7928,
      "only": 7929,
      "_sequence": 7930,
      "++++": 7931,
      "Ġlicense": 7932,
      "icated": 7933,
      "_bias": 7934,
      "Sc": 7935,
      "Ġcategories": 7936,
      "mac": 7937,
      "ĠAlthough": 7938,
      "Ġduration": 7939,
      "icit": 7940,
      "Ġrect": 7941,
      "corr": 7942,
      "ultiple": 7943,
      "Ġgender": 7944,
      ".q": 7945,
      "(pre": 7946,
      "Ġagricult": 7947,
      "After": 7948,
      "lapsed": 7949,
      "function": 7950,
      "Ġchannels": 7951,
      "ugg": 7952,
      "æį": 7953,
      "Ġdifferences": 7954,
      "Ġnotice": 7955,
      "isionTree": 7956,
      "aths": 7957,
      "ampler": 7958,
      ".box": 7959,
      "Ġlinks": 7960,
      "Ġtold": 7961,
      "_CO": 7962,
      "ashington": 7963,
      "...Ċ": 7964,
      "Ġrele": 7965,
      "Ġtechniques": 7966,
      ".dropna": 7967,
      "Ġtemper": 7968,
      "Ġvict": 7969,
      "Ġsin": 7970,
      "Ġoccurs": 7971,
      "(features": 7972,
      "ĉprint": 7973,
      "Ġfuel": 7974,
      "Ġarchitect": 7975,
      "360": 7976,
      ".file": 7977,
      "$',": 7978,
      "anish": 7979,
      "Ġadults": 7980,
      "iki": 7981,
      "tended": 7982,
      ".uniform": 7983,
      "_crossentropy": 7984,
      "nap": 7985,
      "Ġip": 7986,
      "Ġenh": 7987,
      ");ĊĊ": 7988,
      "ĠÐ²": 7989,
      "ĠRiver": 7990,
      "Ġstrides": 7991,
      "_rank": 7992,
      "Ġcompare": 7993,
      "Ġproviding": 7994,
      "stat": 7995,
      "idge": 7996,
      "Ġestablish": 7997,
      "_select": 7998,
      "(theta": 7999,
      "reating": 8000,
      "_np": 8001,
      "TA": 8002,
      "ĊĠĠĠĠĠĠĠĠĠĠĠĠĊ": 8003,
      "Ġlayout": 8004,
      "Ġmerge": 8005,
      "png": 8006,
      "Ġroc": 8007,
      "WS": 8008,
      "hetic": 8009,
      "Window": 8010,
      "Ð·": 8011,
      "Column": 8012,
      "cember": 8013,
      "ĠOf": 8014,
      "bal": 8015,
      ">=": 8016,
      "Do": 8017,
      "ĠSince": 8018,
      "ĠWeb": 8019,
      "Ġnearly": 8020,
      "mach": 8021,
      "Ġeyes": 8022,
      ",i": 8023,
      "ĠDi": 8024,
      "Conf": 8025,
      "Ġaccomp": 8026,
      "Ġschema": 8027,
      "TER": 8028,
      "ols": 8029,
      "anged": 8030,
      "ocal": 8031,
      "ĠUN": 8032,
      "Ġpm": 8033,
      "Ġvalidate": 8034,
      "rey": 8035,
      "hared": 8036,
      "Step": 8037,
      "Ġmagn": 8038,
      "Ġshift": 8039,
      "ĠSec": 8040,
      "ĠĠĠĠĠĠĠĠĠĠĠĠĠĠĠĠĠĠĠĠĠĠĠĠĠĠĠĠĠĠĠĠĠĠĠĠĠĠĠĠ": 8041,
      "Ġfailure": 8042,
      "Ġdiscuss": 8043,
      "vies": 8044,
      "Ġdiabetes": 8045,
      "(frame": 8046,
      "uilder": 8047,
      "Ġrare": 8048,
      "ila": 8049,
      "Ġmapping": 8050,
      "Med": 8051,
      "ublish": 8052,
      ".att": 8053,
      "ertools": 8054,
      "These": 8055,
      "Ġ-------Ċ": 8056,
      "Ġdigital": 8057,
      "Ġnx": 8058,
      "Ġperfect": 8059,
      "ille": 8060,
      "_interval": 8061,
      ":'": 8062,
      "prediction": 8063,
      "orb": 8064,
      "Ġdie": 8065,
      "Ġsummer": 8066,
      "Ġreasons": 8067,
      "_hot": 8068,
      "unities": 8069,
      ",t": 8070,
      "Ġ'+": 8071,
      "kip": 8072,
      "Ġfreq": 8073,
      "ota": 8074,
      "Work": 8075,
      "ava": 8076,
      "={Ċ": 8077,
      "_entry": 8078,
      "fficiency": 8079,
      "Ġshared": 8080,
      "ãĤĴ": 8081,
      "Ġancient": 8082,
      "127": 8083,
      ".Date": 8084,
      "/j": 8085,
      "ocket": 8086,
      ".par": 8087,
      "Ġdelay": 8088,
      "Ġ).": 8089,
      "ĠRE": 8090,
      "Ġfinally": 8091,
      ".no": 8092,
      "Ġaud": 8093,
      "Ġha": 8094,
      "Ġexpand": 8095,
      "tely": 8096,
      "Ġcoast": 8097,
      "__\":Ċ": 8098,
      "dx": 8099,
      "iffer": 8100,
      "_alpha": 8101,
      "ĠAssoci": 8102,
      "Ġce": 8103,
      "Ġdegrees": 8104,
      "ĠRandomForestClassifier": 8105,
      "-up": 8106,
      "=g": 8107,
      "')),Ċ": 8108,
      "iler": 8109,
      "anese": 8110,
      "Ġqual": 8111,
      "NB": 8112,
      "ĠGoogle": 8113,
      "valent": 8114,
      "_metric": 8115,
      "Found": 8116,
      "formance": 8117,
      "Ġpeak": 8118,
      "(pd": 8119,
      "Ġcop": 8120,
      "_cv": 8121,
      "Pri": 8122,
      "reet": 8123,
      ".empty": 8124,
      "Ġresponsible": 8125,
      "*.": 8126,
      "Ġstar": 8127,
      "Ġsaw": 8128,
      "Ġwaste": 8129,
      "pet": 8130,
      ".key": 8131,
      "mplex": 8132,
      "CK": 8133,
      "ki": 8134,
      "ĠDataset": 8135,
      "Ġequipment": 8136,
      "Lat": 8137,
      ".stack": 8138,
      "ĠCanada": 8139,
      "embedding": 8140,
      "Ġfol": 8141,
      "ĠHel": 8142,
      "Ġefforts": 8143,
      "Ġgets": 8144,
      "ĠChurch": 8145,
      "ĠAccuracy": 8146,
      "Ġepsilon": 8147,
      "Ġroad": 8148,
      "Ġremains": 8149,
      "Ġsugar": 8150,
      "Ġrapid": 8151,
      "ĠPort": 8152,
      "############": 8153,
      "ĠCha": 8154,
      "help": 8155,
      "ERT": 8156,
      "si": 8157,
      "(None": 8158,
      "alty": 8159,
      "()]Ċ": 8160,
      "_tags": 8161,
      "Ġeast": 8162,
      "ĠForm": 8163,
      "Ð¿": 8164,
      "Ġborder": 8165,
      "resents": 8166,
      "_local": 8167,
      "'})Ċ": 8168,
      "Score": 8169,
      "ingu": 8170,
      "}\")ĊĊ": 8171,
      "inputs": 8172,
      "under": 8173,
      "ĠNotImplemented": 8174,
      "ĠMc": 8175,
      "oston": 8176,
      "onic": 8177,
      ".dataset": 8178,
      "groupby": 8179,
      "Ġpiece": 8180,
      "ĠEnvironment": 8181,
      "_dataframe": 8182,
      "čĊčĊčĊ": 8183,
      "160": 8184,
      "cop": 8185,
      "Ġoccup": 8186,
      "_ab": 8187,
      "Ġvirus": 8188,
      "Ġforces": 8189,
      "Ġstatement": 8190,
      "Content": 8191,
      "history": 8192,
      "(dict": 8193,
      "Ġtab": 8194,
      "Ġpreds": 8195,
      "witter": 8196,
      "rieved": 8197,
      "mits": 8198,
      "answer": 8199,
      "(color": 8200,
      "meta": 8201,
      "Ġaffected": 8202,
      "address": 8203,
      "Ġlaws": 8204,
      "ĠMet": 8205,
      ".expand": 8206,
      "_URL": 8207,
      "anh": 8208,
      "Ġcool": 8209,
      "Ġagreed": 8210,
      "RAIN": 8211,
      "Ġbutton": 8212,
      "aling": 8213,
      "Ġfemale": 8214,
      "ceptions": 8215,
      "åĬ": 8216,
      "My": 8217,
      "duction": 8218,
      "osite": 8219,
      "LI": 8220,
      "Ne": 8221,
      ">\\": 8222,
      "License": 8223,
      "Ġlegal": 8224,
      "Ġgenes": 8225,
      ".per": 8226,
      "Ġsevere": 8227,
      "sd": 8228,
      "_hash": 8229,
      "Ġsurvey": 8230,
      "ken": 8231,
      "LR": 8232,
      "Ġanti": 8233,
      "_imp": 8234,
      "(arr": 8235,
      "OUT": 8236,
      "ĠEngland": 8237,
      "Ġmother": 8238,
      "Ġhimself": 8239,
      "-term": 8240,
      "Ġearlier": 8241,
      "roke": 8242,
      "ĠNa": 8243,
      "Ġ')Ċ": 8244,
      "Ġidentified": 8245,
      "iring": 8246,
      "epsilon": 8247,
      "Ġyourself": 8248,
      "Ġwor": 8249,
      "_categorical": 8250,
      ".dirname": 8251,
      "Ġcriterion": 8252,
      "><": 8253,
      ".print": 8254,
      "ĠLoss": 8255,
      "Ġolder": 8256,
      "Resource": 8257,
      "Ġinner": 8258,
      "ummies": 8259,
      "iot": 8260,
      "Oper": 8261,
      "Ġ\"+": 8262,
      ".at": 8263,
      "Ġmiles": 8264,
      "anges": 8265,
      "ĠOur": 8266,
      "forms": 8267,
      "UE": 8268,
      "_stop": 8269,
      "WORD": 8270,
      "Ġbeg": 8271,
      "operation": 8272,
      "DP": 8273,
      ".class": 8274,
      "Ġplanet": 8275,
      "aign": 8276,
      "rating": 8277,
      "rief": 8278,
      "BS": 8279,
      "_variable": 8280,
      "Ġcontract": 8281,
      "Ġcert": 8282,
      "elt": 8283,
      "CM": 8284,
      "ACK": 8285,
      "Ġgoogle": 8286,
      "(dim": 8287,
      "Ġ'../": 8288,
      "Ġchoices": 8289,
      "Ġstem": 8290,
      "Ġbey": 8291,
      "ĠHTTP": 8292,
      ".logger": 8293,
      "Ġcreation": 8294,
      "ĠÑģ": 8295,
      "ynomial": 8296,
      "Ġdidn": 8297,
      ".imread": 8298,
      "igns": 8299,
      "nic": 8300,
      "Ġefficient": 8301,
      "Ġbeyond": 8302,
      "(query": 8303,
      "eval": 8304,
      "Ab": 8305,
      "_host": 8306,
      "Ġcast": 8307,
      "mpty": 8308,
      "pective": 8309,
      "Ġequi": 8310,
      "oto": 8311,
      "city": 8312,
      "-year": 8313,
      "Ġplaced": 8314,
      ".reduce": 8315,
      "Ġrich": 8316,
      "Ġtherapy": 8317,
      "eled": 8318,
      "Ġpractices": 8319,
      "Ġadj": 8320,
      "Ġalone": 8321,
      "umed": 8322,
      "Ġsoup": 8323,
      "Ġscaler": 8324,
      "Ġsch": 8325,
      "6666": 8326,
      "sent": 8327,
      "Ġdied": 8328,
      "Ġcompletely": 8329,
      "_stack": 8330,
      "rend": 8331,
      "Ġasked": 8332,
      "Ġqueue": 8333,
      "_parser": 8334,
      "mg": 8335,
      "à¦": 8336,
      "Ġreligious": 8337,
      "ibly": 8338,
      "ervices": 8339,
      "rant": 8340,
      "ĠBar": 8341,
      ".npy": 8342,
      "Ġdisp": 8343,
      "Ġbs": 8344,
      "emo": 8345,
      "'''": 8346,
      "ita": 8347,
      "options": 8348,
      "Ġexit": 8349,
      "Load": 8350,
      "('_": 8351,
      "Be": 8352,
      "rr": 8353,
      "TIES": 8354,
      "ĠFeb": 8355,
      "ĠAmericans": 8356,
      "atient": 8357,
      "ĠDav": 8358,
      "Query": 8359,
      "Ġbul": 8360,
      "Ġgradu": 8361,
      "First": 8362,
      "ĠIsra": 8363,
      "Ġeating": 8364,
      "Ġhistorical": 8365,
      "iloc": 8366,
      "ott": 8367,
      "ĠSave": 8368,
      ",bounds": 8369,
      "straints": 8370,
      "ataloader": 8371,
      "ĠUsing": 8372,
      "Ġcold": 8373,
      "Ġbenefit": 8374,
      "ĠEducation": 8375,
      "Ġfl": 8376,
      "Ġrout": 8377,
      "logies": 8378,
      "Ġio": 8379,
      "valuation": 8380,
      "Validation": 8381,
      "(within": 8382,
      "mpt": 8383,
      "ĠJournal": 8384,
      ".content": 8385,
      "reedom": 8386,
      "Ġwatch": 8387,
      "Sim": 8388,
      "æł": 8389,
      "_html": 8390,
      ":')Ċ": 8391,
      ".last": 8392,
      "Ġteeth": 8393,
      "Ġdy": 8394,
      "Ġtrend": 8395,
      ",v": 8396,
      "Ġmal": 8397,
      "Ġreset": 8398,
      "ifference": 8399,
      "ovember": 8400,
      "Ġpositions": 8401,
      "Ġtimestamp": 8402,
      "ums": 8403,
      "=args": 8404,
      "2004": 8405,
      "Core": 8406,
      "`,": 8407,
      "Ġpages": 8408,
      "Element": 8409,
      "Action": 8410,
      "(round": 8411,
      "Ġborn": 8412,
      "aters": 8413,
      "[m": 8414,
      "_%": 8415,
      "DIT": 8416,
      "_flag": 8417,
      "Ġfair": 8418,
      "_job": 8419,
      "gra": 8420,
      "Ġrecently": 8421,
      "Ġinterface": 8422,
      "Ġtrial": 8423,
      "Ġscope": 8424,
      "_TYPE": 8425,
      "xml": 8426,
      "adam": 8427,
      "_fold": 8428,
      "ĠCong": 8429,
      "service": 8430,
      "API": 8431,
      "ilarity": 8432,
      "Dir": 8433,
      "Ġgetattr": 8434,
      "NO": 8435,
      "_us": 8436,
      "Ġpow": 8437,
      ".St": 8438,
      "Ġthick": 8439,
      "/'": 8440,
      "SM": 8441,
      "While": 8442,
      "email": 8443,
      "yles": 8444,
      "Ġnotes": 8445,
      "ĠSan": 8446,
      "}:": 8447,
      "Ġdates": 8448,
      ".return": 8449,
      "_save": 8450,
      "Ġinfect": 8451,
      "ĠFound": 8452,
      "_lib": 8453,
      "}{": 8454,
      "comment": 8455,
      "Ġnative": 8456,
      "ĠBlack": 8457,
      "ĠMa": 8458,
      "Ġsurg": 8459,
      "validate": 8460,
      "lated": 8461,
      "Ġmatches": 8462,
      "gamma": 8463,
      "_desc": 8464,
      "limiter": 8465,
      "ĠWilli": 8466,
      "Open": 8467,
      "Ġjoint": 8468,
      "Ġsolve": 8469,
      "CP": 8470,
      "Ġpal": 8471,
      "Gener": 8472,
      "Ġfix": 8473,
      "mass": 8474,
      ".net": 8475,
      "Ġtrained": 8476,
      "sole": 8477,
      "hen": 8478,
      "Ġeveryone": 8479,
      "ĠGovern": 8480,
      ".weight": 8481,
      "_device": 8482,
      "Ġcombination": 8483,
      "Generator": 8484,
      "ĠCode": 8485,
      "Ġenable": 8486,
      "allbacks": 8487,
      "Ġta": 8488,
      "_age": 8489,
      "ĠDNA": 8490,
      "(alpha": 8491,
      "nan": 8492,
      "Ġcompleted": 8493,
      "kedirs": 8494,
      "elf": 8495,
      "(\"--": 8496,
      "ĠVir": 8497,
      "ulator": 8498,
      "ouncil": 8499,
      "Ġhistor": 8500,
      "arded": 8501,
      "iÃ³n": 8502,
      "Ġpairs": 8503,
      "Ġspirit": 8504,
      "\"))ĊĊ": 8505,
      "Ġnd": 8506,
      "utoff": 8507,
      "2001": 8508,
      "Dec": 8509,
      "eros": 8510,
      "()):Ċ": 8511,
      "ĠEven": 8512,
      "ĠTraining": 8513,
      "oi": 8514,
      "Ġcov": 8515,
      "ĠSeptember": 8516,
      "Ġwoman": 8517,
      "Ġcircuit": 8518,
      "Ġmajority": 8519,
      "Ġtrip": 8520,
      "ĠService": 8521,
      "_K": 8522,
      "Ġdouble": 8523,
      "Ġcitiz": 8524,
      "Ġnor": 8525,
      "Ġspecify": 8526,
      "Ġlatest": 8527,
      "Service": 8528,
      "inding": 8529,
      "Order": 8530,
      "encode": 8531,
      "apers": 8532,
      "Ġpresence": 8533,
      "Ġinteresting": 8534,
      "ĠJanuary": 8535,
      "Ġhasattr": 8536,
      "han": 8537,
      "ĠGenerate": 8538,
      "Ġopportunity": 8539,
      "URE": 8540,
      "ĠEl": 8541,
      "_noise": 8542,
      "Ġpercentage": 8543,
      "Â°": 8544,
      "Ġreports": 8545,
      "Random": 8546,
      "scores": 8547,
      "cr": 8548,
      ".Variable": 8549,
      "sts": 8550,
      ".graph": 8551,
      "ously": 8552,
      "ayer": 8553,
      "Method": 8554,
      "Ġresulting": 8555,
      "band": 8556,
      "Ġhit": 8557,
      "ussion": 8558,
      "Ġgt": 8559,
      "nections": 8560,
      "Ġready": 8561,
      "Ġrequirements": 8562,
      "Graph": 8563,
      "large": 8564,
      "Ġconsumption": 8565,
      "nology": 8566,
      "Ġ{},": 8567,
      "']))Ċ": 8568,
      "-a": 8569,
      "ĠJust": 8570,
      "Ġfriends": 8571,
      "Ġrobot": 8572,
      "urvived": 8573,
      "Ġking": 8574,
      "Ġfear": 8575,
      "oftmax": 8576,
      "Ġnotebook": 8577,
      ".flatten": 8578,
      "park": 8579,
      "Ġstrings": 8580,
      "ĠConf": 8581,
      "Ġeconomy": 8582,
      "plan": 8583,
      "Ġfather": 8584,
      "ĠWord": 8585,
      "Ġrecon": 8586,
      "_errors": 8587,
      "_real": 8588,
      "Country": 8589,
      "ĠUnit": 8590,
      "oted": 8591,
      "ĠTO": 8592,
      ".ravel": 8593,
      "enty": 8594,
      "Ġdrugs": 8595,
      "ĠSE": 8596,
      "ĠĠĠĠĠĠĠĠĠĠĠĠĠĠĠĠĠĠĠĠĠĠĠĠĠĠĠĠĠĠĠĠĠĠĠĠĠĠĠĠĠ": 8597,
      "Ġtokenizer": 8598,
      "âĸĪ": 8599,
      "ĠPipeline": 8600,
      "_ME": 8601,
      "(sc": 8602,
      "ĠEX": 8603,
      "metrics": 8604,
      "Ġdeb": 8605,
      "aven": 8606,
      ".String": 8607,
      "ĠChinese": 8608,
      "counter": 8609,
      "_vocab": 8610,
      "ĠMex": 8611,
      "ifications": 8612,
      "-v": 8613,
      "vival": 8614,
      "ests": 8615,
      "Ġminor": 8616,
      "ĠčĊ": 8617,
      "Ġmarkers": 8618,
      "Ġurllib": 8619,
      "Epoch": 8620,
      "ulf": 8621,
      "async": 8622,
      "Ġeasier": 8623,
      "åĢ": 8624,
      "Dis": 8625,
      "Ġrand": 8626,
      "Ġassign": 8627,
      "Ġexternal": 8628,
      "urons": 8629,
      "Ġestimated": 8630,
      "urance": 8631,
      "omb": 8632,
      "(V": 8633,
      ")\",": 8634,
      "Grid": 8635,
      "Ġ\"{": 8636,
      "Ġflat": 8637,
      "Ġwidgets": 8638,
      "ĠSm": 8639,
      "Ġroll": 8640,
      "aul": 8641,
      "Ġidentity": 8642,
      "which": 8643,
      "ua": 8644,
      "Ġls": 8645,
      "Ġpermissions": 8646,
      "ìĹ": 8647,
      "Ġarticles": 8648,
      "Ġpicture": 8649,
      "Ġdropout": 8650,
      "ĠOnly": 8651,
      "outer": 8652,
      "Ġcamera": 8653,
      "okup": 8654,
      "(msg": 8655,
      "(top": 8656,
      "Ġappears": 8657,
      "Length": 8658,
      "Ġfruit": 8659,
      "ULL": 8660,
      "[train": 8661,
      "ĠBook": 8662,
      "ĠLa": 8663,
      "Ġdiag": 8664,
      "Ġadding": 8665,
      "ĠIndex": 8666,
      "ĠStep": 8667,
      "_server": 8668,
      "Vectorizer": 8669,
      "context": 8670,
      "osing": 8671,
      "Ġconfidence": 8672,
      "Ġcoming": 8673,
      "ruary": 8674,
      "_account": 8675,
      "Ġpathlib": 8676,
      "Ġprofessional": 8677,
      "ĠNotImplementedError": 8678,
      ".exit": 8679,
      "=train": 8680,
      "drive": 8681,
      "_low": 8682,
      "192": 8683,
      "_ts": 8684,
      "Target": 8685,
      "leted": 8686,
      ".DE": 8687,
      "TS": 8688,
      "/My": 8689,
      "Ġremote": 8690,
      "imension": 8691,
      ".numpy": 8692,
      "istant": 8693,
      "Ġms": 8694,
      "ĠArch": 8695,
      "Ġtoward": 8696,
      "}/{": 8697,
      "Normalization": 8698,
      "ĠProgram": 8699,
      "Ġrise": 8700,
      "ĠPr": 8701,
      "ĠWashington": 8702,
      ":\"": 8703,
      "_rep": 8704,
      "=plt": 8705,
      "Ġids": 8706,
      "activation": 8707,
      "Command": 8708,
      "mazon": 8709,
      "Fold": 8710,
      "Ġsigns": 8711,
      "_cap": 8712,
      "rics": 8713,
      "Ġfederal": 8714,
      "Ġcharge": 8715,
      "Ġboxes": 8716,
      "ĠValid": 8717,
      "ĠTH": 8718,
      "Title": 8719,
      "stants": 8720,
      "ĠLinearRegression": 8721,
      "ĠAccording": 8722,
      "ĠPo": 8723,
      "[name": 8724,
      "ê°": 8725,
      "-data": 8726,
      "Ġcommonly": 8727,
      "Ġarri": 8728,
      "-',": 8729,
      "Ġmix": 8730,
      "ĠPost": 8731,
      "Ġmale": 8732,
      "ows": 8733,
      "Ġtox": 8734,
      "Ġcoup": 8735,
      "_it": 8736,
      ".cal": 8737,
      "ĠOctober": 8738,
      "()),": 8739,
      "Ġadult": 8740,
      "lugin": 8741,
      "ĠGreat": 8742,
      "chron": 8743,
      "control": 8744,
      "ĠAc": 8745,
      "Ġsheet": 8746,
      "iers": 8747,
      "Ġbirds": 8748,
      "Ġimplementation": 8749,
      "ĠWARRANTIES": 8750,
      "/h": 8751,
      "'))": 8752,
      "Ġperformed": 8753,
      "_decay": 8754,
      "Ġshutil": 8755,
      "\"]:Ċ": 8756,
      "Var": 8757,
      "Ġdestroy": 8758,
      "Ġindependent": 8759,
      "Ġwinter": 8760,
      "Ġalcohol": 8761,
      "ports": 8762,
      "Ġstaff": 8763,
      "Ġ)ĊĊĊ": 8764,
      "iction": 8765,
      "Ġhon": 8766,
      "Ġstandards": 8767,
      "rep": 8768,
      "Ġclusters": 8769,
      "media": 8770,
      ".main": 8771,
      "/P": 8772,
      "Ġformer": 8773,
      "Ġdesired": 8774,
      "ĠStart": 8775,
      ".makedirs": 8776,
      "_profile": 8777,
      "'}Ċ": 8778,
      "([])Ċ": 8779,
      "Ġcursor": 8780,
      "Ġ{:": 8781,
      "(H": 8782,
      "Ġaudio": 8783,
      "Ġsumm": 8784,
      "Ġrepla": 8785,
      "iology": 8786,
      "Cor": 8787,
      "urvey": 8788,
      "(arg": 8789,
      "hemat": 8790,
      "Ġevolution": 8791,
      "ĠSpec": 8792,
      "Ġspot": 8793,
      "BB": 8794,
      "2003": 8795,
      "folio": 8796,
      "Ġemissions": 8797,
      "Ġgenetic": 8798,
      "Ġfavor": 8799,
      "roc": 8800,
      "tot": 8801,
      "Ġwrote": 8802,
      "_tri": 8803,
      "iately": 8804,
      "Ġhydro": 8805,
      "classifier": 8806,
      "Ġsubset": 8807,
      "Ġchart": 8808,
      ".on": 8809,
      "Ġaccur": 8810,
      "ĠWater": 8811,
      "essel": 8812,
      "ERROR": 8813,
      "Ġlocations": 8814,
      ",None": 8815,
      "uffix": 8816,
      "(token": 8817,
      "Ġapplicable": 8818,
      "ECT": 8819,
      "riteria": 8820,
      "lm": 8821,
      "bool": 8822,
      "Ġeffort": 8823,
      "Ġcontrast": 8824,
      "depth": 8825,
      "Ġdecoder": 8826,
      "Ġsolutions": 8827,
      "_scope": 8828,
      "itanic": 8829,
      ".dtype": 8830,
      "Ġpt": 8831,
      "{}\".": 8832,
      "Ġeight": 8833,
      "Ġbelief": 8834,
      "ãĢĤ": 8835,
      "Ġsecret": 8836,
      "Ġmill": 8837,
      "labor": 8838,
      "lax": 8839,
      "_mapping": 8840,
      "Ġcalls": 8841,
      "hidden": 8842,
      "anel": 8843,
      "ned": 8844,
      "match": 8845,
      "Ġbillion": 8846,
      "Ġtown": 8847,
      "-like": 8848,
      "130": 8849,
      "EE": 8850,
      "Neighbors": 8851,
      "Ġoperator": 8852,
      "Ġsage": 8853,
      "sex": 8854,
      "Ġchurch": 8855,
      "Ġdiscovered": 8856,
      "Mix": 8857,
      "rical": 8858,
      "Ġbranch": 8859,
      "Invalid": 8860,
      "Ġinitialize": 8861,
      "ĠId": 8862,
      "å°": 8863,
      "Ġfresh": 8864,
      "kdir": 8865,
      "aria": 8866,
      "DC": 8867,
      ".K": 8868,
      "cluded": 8869,
      "Ġmovie": 8870,
      "Ġfake": 8871,
      "Ġvary": 8872,
      "Ġprocessed": 8873,
      ",(": 8874,
      ".Column": 8875,
      "access": 8876,
      "acing": 8877,
      "(tmp": 8878,
      "_single": 8879,
      "HTTP": 8880,
      "igits": 8881,
      "LAG": 8882,
      "fn": 8883,
      "structions": 8884,
      "Ġlimitations": 8885,
      "Ġpor": 8886,
      "ador": 8887,
      "Off": 8888,
      "vc": 8889,
      "ormalize": 8890,
      "Ġprices": 8891,
      "oul": 8892,
      "orange": 8893,
      "ĠBecause": 8894,
      "122": 8895,
      "Ġmouth": 8896,
      "Ġpregn": 8897,
      "rolling": 8898,
      "Ġpowerful": 8899,
      "_case": 8900,
      "lege": 8901,
      "Ġdivision": 8902,
      "udy": 8903,
      "Ġcommercial": 8904,
      "Ġhappen": 8905,
      "second": 8906,
      "Can": 8907,
      "module": 8908,
      "Ġresolution": 8909,
      ".token": 8910,
      "ĠDuring": 8911,
      "ontsize": 8912,
      "vised": 8913,
      "_record": 8914,
      "ini": 8915,
      "FIG": 8916,
      "ĠAR": 8917,
      "wide": 8918,
      "_correct": 8919,
      "(al": 8920,
      "(W": 8921,
      "Ġruns": 8922,
      "lates": 8923,
      "ris": 8924,
      "bra": 8925,
      "osa": 8926,
      ".conf": 8927,
      "=model": 8928,
      "icies": 8929,
      ".style": 8930,
      "ĠDecember": 8931,
      "cloud": 8932,
      "owns": 8933,
      "),(": 8934,
      "Ġgiving": 8935,
      "Ġvision": 8936,
      "ĠRoman": 8937,
      "GS": 8938,
      "gender": 8939,
      "ĠPresident": 8940,
      "Ġzone": 8941,
      ".matmul": 8942,
      ".build": 8943,
      "Ġformed": 8944,
      "Ġshell": 8945,
      "Ġrepresents": 8946,
      "ĠCl": 8947,
      ".default": 8948,
      "_bins": 8949,
      ".',": 8950,
      "Ġimmune": 8951,
      "Ġbed": 8952,
      "ĠApache": 8953,
      "movie": 8954,
      "_examples": 8955,
      "=Re": 8956,
      "umulative": 8957,
      "Ġnutri": 8958,
      "Ġspeech": 8959,
      "anned": 8960,
      "aled": 8961,
      "Ġunc": 8962,
      "shift": 8963,
      "arily": 8964,
      "andidates": 8965,
      "desc": 8966,
      "tight": 8967,
      "Ġmem": 8968,
      "Ġkm": 8969,
      "Ġelim": 8970,
      "Ġparty": 8971,
      "ãĥ¼": 8972,
      "_policy": 8973,
      "Ġpixel": 8974,
      "Ġlibraries": 8975,
      "bor": 8976,
      "ĠTra": 8977,
      "fft": 8978,
      "eno": 8979,
      "Ġextent": 8980,
      "(source": 8981,
      "ĠSelect": 8982,
      "Ġsmooth": 8983,
      "oreignKey": 8984,
      "Ġcommands": 8985,
      "-st": 8986,
      "Ġjobs": 8987,
      "_users": 8988,
      ".match": 8989,
      ".end": 8990,
      "Ġreduction": 8991,
      "Rel": 8992,
      "ĠPCA": 8993,
      "_DATA": 8994,
      "care": 8995,
      "HOUT": 8996,
      ".colorbar": 8997,
      "Ġstructures": 8998,
      "Ġlosses": 8999,
      "ĠGridSearchCV": 9000,
      "uced": 9001,
      "Ġgave": 9002,
      "(history": 9003,
      "Ð¹": 9004,
      "\"}": 9005,
      "Ġbackend": 9006,
      "'ve": 9007,
      "Ġoffers": 9008,
      "Ġgames": 9009,
      "_long": 9010,
      "Ġ'',": 9011,
      "Ġworth": 9012,
      "reads": 9013,
      ".parent": 9014,
      "Ġpyplot": 9015,
      "ĠTypeError": 9016,
      "nr": 9017,
      "Ġtrigger": 9018,
      "ĠLaw": 9019,
      "Ġchance": 9020,
      "ascending": 9021,
      "Ġpayload": 9022,
      "semble": 9023,
      "_print": 9024,
      "ceived": 9025,
      "ĠDate": 9026,
      "Raises": 9027,
      "ĠHouse": 9028,
      "ĠTable": 9029,
      "lative": 9030,
      "Ġsimulation": 9031,
      "gency": 9032,
      "licenses": 9033,
      "(pos": 9034,
      "æĺ¯": 9035,
      "dl": 9036,
      "Ġloaded": 9037,
      "_targets": 9038,
      "999": 9039,
      ".Adam": 9040,
      "Ġincreases": 9041,
      "(default": 9042,
      "Ġdx": 9043,
      "_workers": 9044,
      "Ġalternative": 9045,
      "ĠChange": 9046,
      "Ġeg": 9047,
      "Ġproperly": 9048,
      "Ġmp": 9049,
      "(K": 9050,
      "loop": 9051,
      "Ġreq": 9052,
      "2002": 9053,
      "lsx": 9054,
      "Enter": 9055,
      "phi": 9056,
      "UNT": 9057,
      "Ġbatter": 9058,
      ".decode": 9059,
      "Red": 9060,
      "MB": 9061,
      "Ġprotocol": 9062,
      "Ġchanging": 9063,
      ".Test": 9064,
      "=X": 9065,
      "Det": 9066,
      "ĠLondon": 9067,
      "ji": 9068,
      "Ġworked": 9069,
      "_opt": 9070,
      "Ġgir": 9071,
      "-P": 9072,
      ".place": 9073,
      "Ġphone": 9074,
      "Ġscoring": 9075,
      "isease": 9076,
      "Ġiteration": 9077,
      "endar": 9078,
      "Mo": 9079,
      ".ensemble": 9080,
      "Ġobservation": 9081,
      ".cluster": 9082,
      "Ġappend": 9083,
      "Ġextension": 9084,
      "_ob": 9085,
      "_neg": 9086,
      ".action": 9087,
      "iences": 9088,
      "Ġrepresentation": 9089,
      "Ġexecute": 9090,
      "Ġperhaps": 9091,
      "_ph": 9092,
      "ĠĠĠĠĠĠĠĠĠĠĠĠĠĠĠĠĠĠĠĠĠĠĠĠĠĠĠĠĠĠĠĠĠĠĠĠĠĠĠĠĠĠ": 9093,
      "_week": 9094,
      "Ġillustr": 9095,
      "140": 9096,
      "Ġitertools": 9097,
      "Ġblocks": 9098,
      "atically": 9099,
      "(sys": 9100,
      "Ġbaby": 9101,
      "lots": 9102,
      "Ġbuffer": 9103,
      "Ġshowed": 9104,
      "predicted": 9105,
      "Other": 9106,
      "Ġtun": 9107,
      "Ġstories": 9108,
      "ĠLearning": 9109,
      "_events": 9110,
      "orge": 9111,
      "Ġpeace": 9112,
      "Ġgather": 9113,
      "_PRO": 9114,
      "Ġcompliance": 9115,
      "(feature": 9116,
      "CRE": 9117,
      "æĹ": 9118,
      "Ġspecif": 9119,
      "ĠPeople": 9120,
      "Ġusername": 9121,
      "_trace": 9122,
      "ashion": 9123,
      "Ġtreated": 9124,
      "Ġfinding": 9125,
      "_meta": 9126,
      "ï¼ļ": 9127,
      "_agg": 9128,
      "Ġmac": 9129,
      "gypt": 9130,
      "Ġdepending": 9131,
      "chain": 9132,
      "700": 9133,
      "igit": 9134,
      "Ġrecommended": 9135,
      "ĠUK": 9136,
      "nel": 9137,
      "oolean": 9138,
      "Ġexactly": 9139,
      "âĶĢ": 9140,
      "Ġatmos": 9141,
      "Ġsitu": 9142,
      "volume": 9143,
      "Ġatom": 9144,
      "ĠOff": 9145,
      "');Ċ": 9146,
      "rew": 9147,
      "Ġsett": 9148,
      "Ġletters": 9149,
      ".sql": 9150,
      "Ġstrategies": 9151,
      "spath": 9152,
      "Ġtissue": 9153,
      "avel": 9154,
      "Ġsentences": 9155,
      "=Reals": 9156,
      "scatter": 9157,
      "_pop": 9158,
      "pool": 9159,
      "/'Ċ": 9160,
      "Ġdistrict": 9161,
      "Ġplug": 9162,
      "Ġforeign": 9163,
      "Ġfib": 9164,
      "_encoder": 9165,
      "archive": 9166,
      ".cm": 9167,
      "_mo": 9168,
      "Ġcontinued": 9169,
      "ĠĠĠĠĠĠĠĠĠĠĠĠĠĠĠĠĠĠĠĠĠĠĠĠĠĠĠĠĠĠĠĠĠĠĠĠĠĠĠĠĠĠĠĠĠĠĠ": 9170,
      "Ġdistinct": 9171,
      "(doc": 9172,
      "Ġobservations": 9173,
      "_category": 9174,
      "ottom": 9175,
      "Back": 9176,
      "ĠFOR": 9177,
      "ĠAir": 9178,
      "umin": 9179,
      "Returns": 9180,
      "(images": 9181,
      "ĠLanguage": 9182,
      ".uint": 9183,
      "Ġauthors": 9184,
      "ĠNetwork": 9185,
      "bc": 9186,
      "ĠMod": 9187,
      "Ġdocuments": 9188,
      "ĠPRO": 9189,
      "Ġ-*-Ċ": 9190,
      "Ġplots": 9191,
      "Ġacade": 9192,
      "=w": 9193,
      "Ġlearned": 9194,
      "stead": 9195,
      "_days": 9196,
      "ĠRel": 9197,
      "ĉelse": 9198,
      "cies": 9199,
      "Ġgrade": 9200,
      "convert": 9201,
      "_product": 9202,
      "(comp": 9203,
      ")/(": 9204,
      "_center": 9205,
      "Ġmm": 9206,
      "ĠJSON": 9207,
      "_high": 9208,
      "Ġsurround": 9209,
      "SI": 9210,
      "ernal": 9211,
      "eding": 9212,
      "kt": 9213,
      "Ġdiscrimin": 9214,
      "ĠYear": 9215,
      "some": 9216,
      "usiness": 9217,
      "Ġriver": 9218,
      "-of": 9219,
      "ĠUpdate": 9220,
      "Ġstrugg": 9221,
      "ierarch": 9222,
      "å¼": 9223,
      "Ġvectors": 9224,
      "Ġrelatively": 9225,
      "marks": 9226,
      "Ġpark": 9227,
      "redit": 9228,
      "Ġadopt": 9229,
      "iverse": 9230,
      "ogen": 9231,
      "Ġfine": 9232,
      ".assertRaises": 9233,
      "Project": 9234,
      "_unit": 9235,
      "ĠPoint": 9236,
      "soft": 9237,
      "ĠIsrael": 9238,
      "Ġbg": 9239,
      "Ġremaining": 9240,
      "_struct": 9241,
      "-th": 9242,
      "ONE": 9243,
      "driver": 9244,
      "Ġcompreh": 9245,
      ".patch": 9246,
      "agraph": 9247,
      "->": 9248,
      "ĠNovember": 9249,
      "'},": 9250,
      "asis": 9251,
      ".Text": 9252,
      "ĠHTML": 9253,
      "Ġimmediately": 9254,
      "åĮ": 9255,
      "Session": 9256,
      "Ġphilos": 9257,
      "aching": 9258,
      "ä¸º": 9259,
      "Ġtk": 9260,
      "account": 9261,
      "ë¡": 9262,
      "Ġchallenges": 9263,
      "Ġserve": 9264,
      "Ġsoft": 9265,
      "redentials": 9266,
      "Ġmesh": 9267,
      "Ġgoals": 9268,
      "Soup": 9269,
      "ilation": 9270,
      "Ġarrays": 9271,
      "clusion": 9272,
      "Ġtweet": 9273,
      "uthent": 9274,
      "Ġ(%": 9275,
      "}\"Ċ": 9276,
      "ASSWORD": 9277,
      "actual": 9278,
      "well": 9279,
      "(conf": 9280,
      "ĠRo": 9281,
      "(optimizer": 9282,
      "_visible": 9283,
      "lf": 9284,
      "(\\": 9285,
      "_track": 9286,
      "encing": 9287,
      "Ġprof": 9288,
      "Ġlinked": 9289,
      "Ġframes": 9290,
      "=float": 9291,
      "_RO": 9292,
      "Ġexcess": 9293,
      "Ġoffice": 9294,
      "=models": 9295,
      "commands": 9296,
      "Ġconse": 9297,
      "ifest": 9298,
      "1990": 9299,
      "ato": 9300,
      "(Base": 9301,
      "(app": 9302,
      "/drive": 9303,
      "ĠRemove": 9304,
      "Ġdisable": 9305,
      "ĠWITHOUT": 9306,
      "named": 9307,
      "dc": 9308,
      "=batch": 9309,
      "actors": 9310,
      "rtype": 9311,
      "Ġcheckpoint": 9312,
      "=k": 9313,
      "itivity": 9314,
      "(total": 9315,
      "_email": 9316,
      ".wait": 9317,
      "Factory": 9318,
      "Ġcontinuous": 9319,
      "=_": 9320,
      "Ġexperiences": 9321,
      "Ġunknown": 9322,
      "ongs": 9323,
      "fast": 9324,
      "107": 9325,
      "Ġreaction": 9326,
      ",len": 9327,
      ".\\": 9328,
      "Ġthousands": 9329,
      "Imp": 9330,
      "Ġusage": 9331,
      "Ġfmt": 9332,
      "tests": 9333,
      "Ġisol": 9334,
      "kin": 9335,
      "ĠSoftware": 9336,
      "issions": 9337,
      "_patch": 9338,
      ".pos": 9339,
      "_ct": 9340,
      "_art": 9341,
      "_losses": 9342,
      "Mode": 9343,
      "Ġentries": 9344,
      "(dir": 9345,
      "Ġ*=": 9346,
      "Ġstarts": 9347,
      ".acc": 9348,
      "atchNormalization": 9349,
      "_perm": 9350,
      "(message": 9351,
      "Ġlooks": 9352,
      "ĠGermany": 9353,
      "Ġpygame": 9354,
      "Now": 9355,
      "':[": 9356,
      ".heatmap": 9357,
      "ĠVariable": 9358,
      "uts": 9359,
      "iming": 9360,
      "ĠExample": 9361,
      "quis": 9362,
      ".system": 9363,
      "_pairs": 9364,
      "vo": 9365,
      "Ã¼": 9366,
      "_region": 9367,
      "ago": 9368,
      "afe": 9369,
      "verter": 9370,
      "Ġpreprocess": 9371,
      "=len": 9372,
      "ĠIns": 9373,
      "RF": 9374,
      "rition": 9375,
      "Ġtru": 9376,
      "Ġjournal": 9377,
      "ĠInc": 9378,
      "ĠBra": 9379,
      ".nodes": 9380,
      ".glob": 9381,
      "Ġhousehold": 9382,
      "istr": 9383,
      "loader": 9384,
      "Eng": 9385,
      "<=": 9386,
      "crib": 9387,
      "']),": 9388,
      "cades": 9389,
      "Ġtorchvision": 9390,
      "(is": 9391,
      "rane": 9392,
      "Ġphen": 9393,
      "_tmp": 9394,
      "iox": 9395,
      ".clear": 9396,
      "_absolute": 9397,
      "Instance": 9398,
      "_neighbors": 9399,
      "ĠDon": 9400,
      "Ġurban": 9401,
      "Ġcorrelation": 9402,
      "effic": 9403,
      "()).": 9404,
      "orded": 9405,
      "Ġplotting": 9406,
      "Ġpreviously": 9407,
      "-z": 9408,
      "orecast": 9409,
      "ĠFrance": 9410,
      "Update": 9411,
      "Ref": 9412,
      "sembly": 9413,
      "Ġdescribe": 9414,
      "Ġestimate": 9415,
      "Ac": 9416,
      "Ġ\"\"\"čĊ": 9417,
      "atom": 9418,
      "_sql": 9419,
      "rains": 9420,
      "_poly": 9421,
      "Ġhappens": 9422,
      "_schema": 9423,
      "/train": 9424,
      "ĠDecisionTree": 9425,
      "Ġtransition": 9426,
      ".route": 9427,
      "ouses": 9428,
      "Ġpackages": 9429,
      "chemy": 9430,
      "_probs": 9431,
      "_analysis": 9432,
      "bold": 9433,
      "ìĦ": 9434,
      "_mock": 9435,
      "CI": 9436,
      "Ġproport": 9437,
      "hether": 9438,
      "Ġdisorder": 9439,
      "Ġswitch": 9440,
      ":],": 9441,
      "bins": 9442,
      "isodes": 9443,
      "Means": 9444,
      "chedule": 9445,
      "_flow": 9446,
      "å¾": 9447,
      "ysical": 9448,
      "django": 9449,
      "Ġimplied": 9450,
      "Ġseeds": 9451,
      "/licenses": 9452,
      "Ġwall": 9453,
      "_memory": 9454,
      "DI": 9455,
      "Ġonto": 9456,
      "Ġtrust": 9457,
      "break": 9458,
      "deed": 9459,
      "estimator": 9460,
      "scaler": 9461,
      "Ġec": 9462,
      "Ġcook": 9463,
      "Ġeducational": 9464,
      "')['": 9465,
      "Ġhorizontal": 9466,
      "username": 9467,
      "_buffer": 9468,
      "repr": 9469,
      "Ġcreates": 9470,
      "-pro": 9471,
      "(current": 9472,
      "logging": 9473,
      "ulner": 9474,
      ".util": 9475,
      "Ġopportunities": 9476,
      ".gz": 9477,
      "(mask": 9478,
      "(cor": 9479,
      "_amount": 9480,
      "æį®": 9481,
      "AY": 9482,
      "_man": 9483,
      "Ġpys": 9484,
      "Ġscatter": 9485,
      "404": 9486,
      "Ġfindings": 9487,
      "Ġ</": 9488,
      "Ġfra": 9489,
      "_excel": 9490,
      "ĠColor": 9491,
      ",color": 9492,
      "ĠCounter": 9493,
      "xygen": 9494,
      "Ġbla": 9495,
      "ycle": 9496,
      "Ġantib": 9497,
      ">',": 9498,
      "wt": 9499,
      "parameter": 9500,
      "van": 9501,
      "west": 9502,
      "ship": 9503,
      ",Y": 9504,
      "Lear": 9505,
      "uplicate": 9506,
      "=num": 9507,
      "(net": 9508,
      "_ar": 9509,
      "Ġsignificantly": 9510,
      "_pair": 9511,
      "ulo": 9512,
      "stone": 9513,
      "Ġinsect": 9514,
      "ĠStruct": 9515,
      "Ġclinical": 9516,
      "_actions": 9517,
      "ĠIter": 9518,
      ".mod": 9519,
      "bow": 9520,
      "Ġslight": 9521,
      "nc": 9522,
      "Ġdomin": 9523,
      "{}/": 9524,
      "irth": 9525,
      "Ġaz": 9526,
      "Ġrepro": 9527,
      "Ġcart": 9528,
      "ĠHuman": 9529,
      "Ġmodules": 9530,
      "ĠEgypt": 9531,
      "Ġfetch": 9532,
      ".for": 9533,
      "ĠQuant": 9534,
      ".\")ĊĊ": 9535,
      "_corr": 9536,
      "Ġhuge": 9537,
      "Ġexplore": 9538,
      "Ġtemperatures": 9539,
      "merged": 9540,
      "export": 9541,
      "autifulSoup": 9542,
      "_duration": 9543,
      "raise": 9544,
      "Ġss": 9545,
      "ĠAustralia": 9546,
      "}'": 9547,
      "channel": 9548,
      "ups": 9549,
      "ulin": 9550,
      "_body": 9551,
      "Ġrace": 9552,
[...]
